<unk>	0
<s>	0
</s>	0
饕餮	0
貔貅	0
一个	-0
没有	-1
自己	-2
他的	-3
这个	-4
就是	-5
的人	-6
因为	-7
他们	-8
皇帝	-9
到了	-10
▁这	-11
不是	-12
什么	-13
已经	-14
——	-15
▁“	-16
所以	-17
自己的	-18
朱棣	-19
▁但	-20
知道	-21
也不	-22
事情	-23
元璋	-24
朱元璋	-25
这样	-26
还是	-27
),	-28
实在	-29
十分	-30
出了	-31
虽然	-32
问题	-33
这位	-34
▁在	-35
时候	-36
是一个	-37
这一	-38
的是	-39
可以	-40
开始	-41
终于	-42
如果	-43
是个	-44
于是	-45
人的	-46
了一	-47
我们	-48
之后	-49
都是	-50
(1	-51
这些	-52
为了	-53
然而	-54
先生	-55
▁他	-56
现在	-57
!”	-58
的时候	-59
准备	-60
最后	-61
并不	-62
也是	-63
很多	-64
如此	-65
徐阶	-66
二十	-67
怎么	-68
。”	-69
所有	-70
应该	-71
万历	-72
所谓	-73
明军	-74
来的	-75
似乎	-76
只有	-77
这么	-78
不能	-79
当时	-80
还有	-81
大的	-82
只是	-83
大家	-84
明朝	-85
事实	-86
的一	-87
大臣	-88
朱祁	-89
居正	-90
张居正	-91
个人	-92
句话	-93
此时	-94
是一	-95
可能	-96
是不	-97
竟然	-98
不过	-99
可是	-100
严嵩	-101
嘉靖	-102
地方	-103
崇祯	-104
来了	-105
历史	-106
发现	-107
▁而	-108
工作	-109
这种	-110
之前	-111
就在	-112
明白	-113
决定	-114
这里	-115
太监	-116
第一	-117
军队	-118
守仁	-119
朝廷	-120
王守仁	-121
崇焕	-122
袁崇焕	-123
只能	-124
同志	-125
其实	-126
自然	-127
▁【	-128
而言	-129
能够	-130
儿子	-131
进攻	-132
出来	-133
看来	-134
▁然而	-135
一个人	-136
只要	-137
大人	-138
然后	-139
士兵	-140
起来	-141
内阁	-142
当然	-143
告诉	-144
京城	-145
年的	-146
重要	-147
比较	-148
去了	-149
确实	-150
无论	-151
天下	-152
时间	-153
的事情	-154
而且	-155
▁于是	-156
因为他	-157
忠贤	-158
成了	-159
魏忠贤	-160
太子	-161
官员	-162
对于	-163
毕竟	-164
的那	-165
必须	-166
也没	-167
第二	-168
朱祁镇	-169
突然	-170
这个人	-171
名字	-172
一直	-173
就不	-174
认为	-175
正是	-176
都不	-177
日军	-178
攻击	-179
中的	-180
不但	-181
两个	-182
相当	-183
而是	-184
(15	-185
相信	-186
胡宗	-187
让他	-188
敌人	-189
由于	-190
胡宗宪	-191
一定	-192
朱厚	-193
证明	-194
一次	-195
上了	-196
这次	-197
就此	-198
情况	-199
经过	-200
日本	-201
意思	-202
看着	-203
下来	-204
▁因为	-205
不会	-206
也先	-207
消息	-208
了他	-209
彻底	-210
仁兄	-211
了一个	-212
今天	-213
命令	-214
最终	-215
高拱	-216
那个	-217
不到	-218
解决	-219
但他	-220
政治	-221
的话	-222
无数	-223
并不是	-224
..	-225
清楚	-226
关系	-227
之所以	-228
真正	-229
算是	-230
并没有	-231
等待	-232
估计	-233
不同	-234
简单	-235
除了	-236
办法	-237
也没有	-238
到底	-239
▁所以	-240
几个	-241
那些	-242
蒙古	-243
不久	-244
国家	-245
希望	-246
部队	-247
很快	-248
死了	-249
明代	-250
上的	-251
骑兵	-252
朱厚照	-253
这样的	-254
作为	-255
十年	-256
一天	-257
陈友	-258
一般	-259
东西	-260
那么	-261
陈友谅	-262
手下	-263
这是	-264
下去	-265
立刻	-266
当年	-267
李如	-268
?”	-269
尚书	-270
比如	-271
将领	-272
指挥	-273
投降	-274
发生	-275
战斗	-276
军事	-277
成为	-278
了他的	-279
有人	-280
胜利	-281
继光	-282
戚继光	-283
表示	-284
让人	-285
出现	-286
很有	-287
想到	-288
:“	-289
一样	-290
▁可是	-291
他们的	-292
无法	-293
机会	-294
如何	-295
朱高	-296
夏言	-297
有着	-298
毫无	-299
一下	-300
皇帝的	-301
皇太	-302
万人	-303
结果	-304
不得	-305
你们	-306
还要	-307
)。	-308
原因	-309
后来	-310
大明	-311
在他	-312
经常	-313
父亲	-314
▁我	-315
唯一	-316
下了	-317
李如松	-318
于谦	-319
百姓	-320
御史	-321
继续	-322
成为了	-323
不要	-324
看到	-325
发动	-326
住了	-327
此人	-328
依然	-329
即使	-330
得到	-331
他就	-332
张璁	-333
方法	-334
战争	-335
许多	-336
首辅	-337
生活	-338
关键	-339
好的	-340
皇太极	-341
三十	-342
当时的	-343
不可	-344
大致	-345
▁可	-346
找到了	-347
大军	-348
他还	-349
一切	-350
容易	-351
一年	-352
回家	-353
基本	-354
史料	-355
多年	-356
尔哈	-357
不了	-358
说了	-359
▁这个	-360
喜欢	-361
才能	-362
选择	-363
东林	-364
”,	-365
计划	-366
这件	-367
世界	-368
总兵	-369
曾经	-370
行为	-371
成功	-372
努尔哈	-373
努尔哈赤	-374
就会	-375
我的	-376
结束	-377
走了	-378
他也	-379
以来	-380
兄弟	-381
打仗	-382
部尚书	-383
时刻	-384
人家	-385
人物	-386
极为	-387
面对	-388
他是	-389
为什么	-390
朋友	-391
作战	-392
都没	-393
非常	-394
再次	-395
并非	-396
高兴	-397
实在是	-398
即将	-399
这位仁兄	-400
中国	-401
的老	-402
事实证明	-403
就算	-404
而已	-405
能力	-406
辽东	-407
任何	-408
对手	-409
麻烦	-410
几天	-411
回去	-412
最为	-413
被人	-414
东林党	-415
叫做	-416
失败	-417
还不	-418
上书	-419
刘瑾	-420
三年	-421
你的	-422
目的	-423
眼前	-424
出去	-425
行动	-426
需要	-427
面前	-428
那里	-429
全部	-430
▁当然	-431
朝鲜	-432
▁杨	-433
多少	-434
就要	-435
汪直	-436
事实上	-437
既然	-438
▁其实	-439
”。	-440
之下	-441
在这	-442
按照	-443
巡抚	-444
大臣们	-445
不用	-446
也就	-447
同时	-448
虽说	-449
朱棣的	-450
倭寇	-451
严世	-452
人都	-453
几年	-454
不好	-455
之中	-456
海瑞	-457
锦衣	-458
在他的	-459
之间	-460
在于	-461
▁万历	-462
给他	-463
有一	-464
答案	-465
之类	-466
领导	-467
就这样	-468
所有的	-469
朱祁钰	-470
读书	-471
▁第	-472
回来	-473
具体	-474
回答	-475
哪里	-476
权力	-477
表现	-478
严世蕃	-479
他没有	-480
造反	-481
▁此时	-482
是很	-483
有点	-484
贵妃	-485
(16	-486
锦衣卫	-487
绝对	-488
陛下	-489
不知道	-490
▁当	-491
学士	-492
对他	-493
▁王	-494
▁虽然	-495
▁朱	-496
不说	-497
坚持	-498
奏疏	-499
打算	-500
特别	-501
的大	-502
说来	-503
后金	-504
对方	-505
愤怒	-506
的事	-507
精神	-508
要求	-509
带着	-510
徐海	-511
的主	-512
还没	-513
孩子	-514
过了	-515
一起	-516
派人	-517
说明	-518
总督	-519
掉了	-520
也就是	-521
不断	-522
亲自	-523
处理	-524
孙承	-525
老婆	-526
进入	-527
孙承宗	-528
的地方	-529
不起	-530
四十	-531
实际	-532
更为	-533
也不是	-534
了个	-535
时行	-536
▁朱元璋	-537
上去	-538
记载	-539
也有	-540
斗争	-541
至少	-542
▁此	-543
以及	-544
几乎	-545
纷纷	-546
聪明	-547
另一个	-548
最后的	-549
双方	-550
▁朱棣	-551
得到了	-552
判断	-553
是有	-554
极其	-555
还能	-556
▁所谓	-557
使用	-558
南京	-559
明显	-560
其中	-561
申时行	-562
一件	-563
奇怪	-564
目标	-565
始终	-566
把他	-567
不久之后	-568
不上	-569
使者	-570
公公	-571
言官	-572
进行	-573
进士	-574
他已经	-575
一点	-576
不知	-577
仍然	-578
就能	-579
弹劾	-580
意料	-581
据说	-582
瓦剌	-583
甚至	-584
一句话	-585
在这里	-586
真正的	-587
人生	-588
愿意	-589
改变	-590
真是	-591
一生	-592
包括	-593
可怕	-594
属于	-595
廷和	-596
根据	-597
那就	-598
▁如果	-599
实在太	-600
可谓	-601
▁嘉靖	-602
小西	-603
帝国	-604
理由	-605
却是	-606
反应	-607
找到	-608
杨涟	-609
身边	-610
想不到	-611
朱高煦	-612
▁从	-613
兵力	-614
无人	-615
经历	-616
蓝玉	-617
重要的	-618
一种	-619
北京	-620
四年	-621
理解	-622
很多人	-623
等待着	-624
这句话	-625
▁李	-626
也很	-627
五年	-628
徐达	-629
战场	-630
支持	-631
▁要	-632
下面	-633
他在	-634
收拾	-635
石亨	-636
给了	-637
说话	-638
起了	-639
下令	-640
厉害	-641
这些人	-642
都没有	-643
出了一个	-644
朱元璋的	-645
发展	-646
来越	-647
水平	-648
见深	-649
错误	-650
越来越	-651
完了	-652
张献	-653
大家都	-654
张献忠	-655
皇后	-656
直接	-657
这帮	-658
介绍	-659
军的	-660
动手	-661
定了	-662
才是	-663
十二	-664
开了	-665
意识	-666
日子	-667
有了	-668
直到	-669
等等	-670
▁这位	-671
有一个	-672
命的	-673
本人	-674
正在	-675
出发	-676
张永	-677
有的	-678
王振	-679
解缙	-680
说法	-681
还在	-682
以为	-683
安排	-684
老师	-685
过来	-686
有贞	-687
不行	-688
完全	-689
粮食	-690
(14	-691
徐有贞	-692
好了	-693
方式	-694
被打	-695
说道	-696
进了	-697
杨廷和	-698
位置	-699
命运	-700
都要	-701
偏偏	-702
家里	-703
真的	-704
▁崇祯	-705
允炆	-706
每天	-707
一清	-708
到达	-709
根本	-710
看见	-711
▁对于	-712
是因为	-713
分析	-714
到来	-715
必定	-716
时代	-717
考虑	-718
获得	-719
俞大	-720
充分	-721
六年	-722
名的	-723
居然	-724
意见	-725
脑袋	-726
自成	-727
的问题	-728
实力	-729
经验	-730
名将	-731
听到	-732
子的	-733
阴谋	-734
就这么	-735
努力	-736
千人	-737
毫不	-738
痛苦	-739
告诉他	-740
信任	-741
宁王	-742
将来	-743
建文	-744
得知	-745
率领	-746
社会	-747
考试	-748
后来的	-749
....	-750
文龙	-751
继盛	-752
行长	-753
这场	-754
小西行长	-755
三个	-756
他不	-757
任务	-758
几十	-759
四处	-760
影响	-761
说过	-762
两个人	-763
第一次	-764
了自己的	-765
加上	-766
当即	-767
总是	-768
最高	-769
统治	-770
老实	-771
要想	-772
历史上	-773
一边	-774
不多	-775
举动	-776
之时	-777
例外	-778
宁远	-779
定的	-780
打了	-781
景隆	-782
认识	-783
一句	-784
反正	-785
武器	-786
身上	-787
错了	-788
魏公公	-789
▁这是一个	-790
一贯	-791
严重	-792
以往	-793
侍郎	-794
母亲	-795
几十年	-796
这是一个	-797
主动	-798
只好	-799
承畴	-800
江彬	-801
过去	-802
洪承畴	-803
七年	-804
不管	-805
绝不	-806
等人	-807
锡爵	-808
毛文龙	-809
刚刚	-810
别人	-811
如同	-812
觉得	-813
部分	-814
随即	-815
他又	-816
制度	-817
参加	-818
接受	-819
的心	-820
皇上	-821
皇位	-822
确的	-823
马上	-824
在这个	-825
他很	-826
元朝	-827
光荣	-828
内容	-829
士奇	-830
宸濠	-831
形势	-832
敌军	-833
本来	-834
某些	-835
正常	-836
此事	-837
永乐	-838
沉默	-839
祖大	-840
规定	-841
▁然后	-842
之类的	-843
他终于	-844
唯一的	-845
李自成	-846
决心	-847
城内	-848
战役	-849
手中	-850
身份	-851
郑和	-852
朱见深	-853
的名字	-854
▁正	-855
不住	-856
从来	-857
感觉	-858
八年	-859
去找	-860
政府	-861
文诏	-862
是要	-863
站在	-864
组织	-865
这人	-866
俞大猷	-867
出的	-868
完成	-869
忽悠	-870
态度	-871
条件	-872
每次	-873
部长	-874
李景隆	-875
入了	-876
复杂	-877
先生的	-878
明朝的	-879
曹文诏	-880
朱允炆	-881
的一切	-882
但在	-883
实现	-884
样的	-885
没人	-886
等到	-887
谈判	-888
不过是	-889
了解	-890
反对	-891
大事	-892
接着	-893
▁这是	-894
无论如何	-895
这件事情	-896
两人	-897
主要	-898
仔细	-899
地位	-900
干了	-901
迎祥	-902
变成了	-903
大学士	-904
战斗力	-905
祖大寿	-906
高迎祥	-907
一把	-908
余人	-909
于是他	-910
朱高炽	-911
不错	-912
同意	-913
杀掉	-914
李成	-915
洪武	-916
责任	-917
所以他	-918
折腾	-919
控制	-920
百年	-921
目前	-922
杨继盛	-923
东厂	-924
体仁	-925
分别	-926
卢象	-927
当他	-928
文章	-929
来说	-930
注意	-931
贪污	-932
退休	-933
面子	-934
卢象升	-935
建文帝	-936
一声	-937
不出	-938
之一	-939
天启	-940
这才	-941
逃跑	-942
▁就在	-943
温体仁	-944
年间	-945
强大	-946
▁王守仁	-947
一路	-948
值得	-949
很难	-950
终究	-951
英雄	-952
身体	-953
这事	-954
老百姓	-955
这一点	-956
所有的人	-957
▁自	-958
下的	-959
和他	-960
多久	-961
察院	-962
对付	-963
意外	-964
无奈	-965
正式	-966
阉党	-967
▁现在	-968
意识到	-969
没有人	-970
▁说	-971
优秀	-972
兵部	-973
后的	-974
学生	-975
放弃	-976
有个	-977
职务	-978
那位	-979
那是	-980
很简单	-981
是不会	-982
的儿子	-983
不敢	-984
十一	-985
原先	-986
奏折	-987
惟庸	-988
或是	-989
翰林	-990
运气	-991
一定要	-992
到这个	-993
第二天	-994
胡惟庸	-995
这一切	-996
这一次	-997
▁张	-998
交给	-999
保证	-1000
口气	-1001
带领	-1002
结局	-1003
王锡爵	-1004
▁这就是	-1005
不想	-1006
为人	-1007
全军	-1008
很好	-1009
得多	-1010
类似	-1011
首先	-1012
最大的	-1013
李成梁	-1014
一旦	-1015
主力	-1016
他将	-1017
吃饭	-1018
后面	-1019
就没	-1020
帮助	-1021
报告	-1022
特殊	-1023
理论	-1024
出现了	-1025
以上	-1026
出征	-1027
前进	-1028
前面	-1029
杀人	-1030
盛庸	-1031
立即	-1032
陆炳	-1033
伟大的	-1034
发生了	-1035
应该说	-1036
月二十	-1037
杨一清	-1038
都察院	-1039
全国	-1040
听说	-1041
是他	-1042
见了	-1043
遇到	-1044
世界上	-1045
所谓的	-1046
事中	-1047
从此	-1048
刘基	-1049
在此	-1050
却没有	-1051
杨士奇	-1052
这个问题	-1053
一位	-1054
一条	-1055
上天	-1056
主意	-1057
二年	-1058
十余	-1059
得意	-1060
撤退	-1061
故事	-1062
畏惧	-1063
▁事情	-1064
士兵们	-1065
的官员	-1066
给事中	-1067
其他	-1068
原本	-1069
局势	-1070
文官	-1071
激动	-1072
的小	-1073
跟着	-1074
遇春	-1075
长期	-1076
很明显	-1077
说出了	-1078
一步	-1079
一片	-1080
力量	-1081
史书	-1082
地点	-1083
如下	-1084
意义	-1085
死后	-1086
玩意	-1087
生意	-1088
的眼	-1089
经济	-1090
认定	-1091
重八	-1092
又一次	-1093
常遇春	-1094
朱宸濠	-1095
之战	-1096
在了	-1097
往往	-1098
监狱	-1099
锦州	-1100
眼前的	-1101
皇帝大人	-1102
出身	-1103
城池	-1104
恢复	-1105
▁他的	-1106
是他的	-1107
的皇帝	-1108
看到了	-1109
(162	-1110
不动	-1111
决战	-1112
占据	-1113
四个	-1114
掌握	-1115
文化	-1116
永远	-1117
的家	-1118
至于	-1119
路上	-1120
知道了	-1121
这就是	-1122
那就是	-1123
作用	-1124
嗣昌	-1125
大炮	-1126
弟弟	-1127
战胜	-1128
提出	-1129
普通	-1130
浙江	-1131
部下	-1132
▁对	-1133
回了	-1134
存在	-1135
思想	-1136
方向	-1137
相比	-1138
行的	-1139
顺利	-1140
▁但他	-1141
实际上	-1142
不堪	-1143
也好	-1144
你要	-1145
保保	-1146
冯保	-1147
办事	-1148
危险	-1149
女人	-1150
平静	-1151
徐渭	-1152
打击	-1153
也不能	-1154
他知道	-1155
不如	-1156
原来	-1157
召集	-1158
将军	-1159
岁的	-1160
干活	-1161
性格	-1162
文书	-1163
死亡	-1164
民族	-1165
特点	-1166
瞻基	-1167
过于	-1168
道理	-1169
里的	-1170
二十年	-1171
怎么办	-1172
此时的	-1173
没办法	-1174
关键时刻	-1175
但是	-1176
出人	-1177
好人	-1178
成员	-1179
看似	-1180
进去	-1181
都有	-1182
高级	-1183
了出来	-1184
干什么	-1185
强大的	-1186
的情况	-1187
郑贵妃	-1188
不去	-1189
但凡	-1190
只剩	-1191
大了	-1192
工资	-1193
平时	-1194
必然	-1195
想法	-1196
教育	-1197
率军	-1198
万大军	-1199
发动了	-1200
最后一	-1201
▁事实证明	-1202
不成	-1203
两位	-1204
亲信	-1205
农民	-1206
勇气	-1207
原则	-1208
惟敬	-1209
按说	-1210
王朝	-1211
秘密	-1212
谦益	-1213
▁徐阶	-1214
沈惟敬	-1215
的意思	-1216
钱谦益	-1217
▁就这样	-1218
在他看来	-1219
并不知道	-1220
吏部	-1221
向高	-1222
天才	-1223
打死	-1224
用了	-1225
的机会	-1226
这件事	-1227
▁〖	-1228
之外	-1229
也要	-1230
地步	-1231
多数	-1232
太多	-1233
建议	-1234
很久	-1235
搞得	-1236
无比	-1237
梦想	-1238
死的	-1239
江西	-1240
解释	-1241
这份	-1242
追击	-1243
长子	-1244
▁作为	-1245
应该是	-1246
▁一	-1247
前来	-1248
前途	-1249
客气	-1250
得罪	-1251
心中	-1252
舜臣	-1253
规则	-1254
后金军	-1255
▁这是一	-1256
丰臣	-1257
人数	-1258
兴奋	-1259
刑部	-1260
名声	-1261
多人	-1262
当地	-1263
背后	-1264
负责	-1265
看上去	-1266
皇帝陛下	-1267
击败	-1268
变化	-1269
和尚	-1270
学习	-1271
想要	-1272
月十	-1273
武将	-1274
门的	-1275
隐藏	-1276
出来的	-1277
叶向高	-1278
当年的	-1279
有什么	-1280
第一个	-1281
一些	-1282
上面	-1283
下达	-1284
从不	-1285
北元	-1286
就行	-1287
秀吉	-1288
辞职	-1289
难以	-1290
▁由于	-1291
做出了	-1292
的将领	-1293
,“	-1294
做了	-1295
出乎	-1296
出生	-1297
早就	-1298
派出	-1299
矛盾	-1300
▁但是	-1301
可怕的	-1302
地发现	-1303
地看着	-1304
我看来	-1305
来到了	-1306
杨嗣昌	-1307
▁事实上	-1308
没有想到	-1309
事件	-1310
他要	-1311
兵法	-1312
前往	-1313
北军	-1314
善长	-1315
士诚	-1316
小的	-1317
环境	-1318
用的	-1319
知府	-1320
自信	-1321
谈话	-1322
麻贵	-1323
差不多	-1324
正确的	-1325
不再	-1326
不太	-1327
九年	-1328
关于	-1329
司令	-1330
城外	-1331
差点	-1332
干掉	-1333
抵抗	-1334
方面	-1335
杀了	-1336
来到	-1337
老子	-1338
说的	-1339
附近	-1340
明军的	-1341
王保保	-1342
要知道	-1343
一举	-1344
也算	-1345
代表	-1346
传奇	-1347
俺答	-1348
在那	-1349
孙子	-1350
屁股	-1351
眼看	-1352
结论	-1353
这封	-1354
开始了	-1355
的人物	-1356
的军队	-1357
的消息	-1358
还没有	-1359
都御史	-1360
只有一个	-1361
▁更	-1362
元军	-1363
司礼	-1364
城墙	-1365
干的	-1366
平安	-1367
残酷	-1368
特务	-1369
疑问	-1370
肯定	-1371
辈子	-1372
过的	-1373
陕西	-1374
也不会	-1375
了下来	-1376
李舜臣	-1377
沈一贯	-1378
这么个	-1379
丰臣秀吉	-1380
▁有	-1381
不怕	-1382
人们	-1383
可惜	-1384
困难	-1385
很大	-1386
手段	-1387
时机	-1388
集团	-1389
鞑靼	-1390
▁袁崇焕	-1391
利益	-1392
势力	-1393
压根	-1394
反复	-1395
吃了	-1396
威胁	-1397
就被	-1398
得了	-1399
效果	-1400
李贤	-1401
民军	-1402
满桂	-1403
称为	-1404
要是	-1405
诸位	-1406
起义	-1407
这条	-1408
闹事	-1409
在那里	-1410
的政治	-1411
让他们	-1412
(159	-1413
不见	-1414
中央	-1415
仅仅	-1416
从未	-1417
他却	-1418
元年	-1419
南军	-1420
土地	-1421
头的	-1422
必要	-1423
技术	-1424
担任	-1425
文华	-1426
明天	-1427
消停	-1428
至此	-1429
被杀	-1430
都在	-1431
▁我们	-1432
今天的	-1433
回到了	-1434
一百	-1435
不下	-1436
举人	-1437
听话	-1438
强的	-1439
心理	-1440
惊奇	-1441
抢劫	-1442
指望	-1443
攻城	-1444
文言	-1445
新的	-1446
继承	-1447
被他	-1448
跑了	-1449
饭吃	-1450
不容易	-1451
到底是	-1452
就没有	-1453
的就是	-1454
这样一个	-1455
一向	-1456
五十	-1457
入阁	-1458
名单	-1459
后宫	-1460
国王	-1461
左右	-1462
没准	-1463
流氓	-1464
理想	-1465
说是	-1466
首领	-1467
▁严嵩	-1468
明白了	-1469
朱重八	-1470
的方法	-1471
十分清楚	-1472
重要的是	-1473
一群	-1474
上级	-1475
会议	-1476
十几	-1477
左良	-1478
无耻	-1479
日夜	-1480
时期	-1481
晚上	-1482
活着	-1483
研究	-1484
笑了	-1485
答应	-1486
连夜	-1487
他决定	-1488
可谓是	-1489
左良玉	-1490
张士诚	-1491
问题在于	-1492
他都	-1493
任命	-1494
传统	-1495
关宁	-1496
大同	-1497
山东	-1498
战术	-1499
来看	-1500
犹豫	-1501
登基	-1502
秀才	-1503
精锐	-1504
要么	-1505
重新	-1506
铁骑	-1507
随着	-1508
了很多	-1509
一直以来	-1510
一人	-1511
东阳	-1512
习惯	-1513
休息	-1514
你是	-1515
冲锋	-1516
却不	-1517
地区	-1518
城门	-1519
对的	-1520
执行	-1521
明的	-1522
走人	-1523
里面	-1524
(13	-1525
他还是	-1526
因为在	-1527
出人意料	-1528
吏部尚书	-1529
包围	-1530
发挥	-1531
叛乱	-1532
大量	-1533
失去	-1534
建立	-1535
放在	-1536
放心	-1537
敢于	-1538
燕王	-1539
的真	-1540
着实	-1541
督师	-1542
而他	-1543
舰队	-1544
话说	-1545
足以	-1546
▁为了	-1547
▁这种	-1548
司礼监	-1549
徐阶的	-1550
李善长	-1551
这帮人	-1552
这是一	-1553
▁此时的	-1554
兵部尚书	-1555
也能	-1556
六十	-1557
对象	-1558
有些	-1559
有德	-1560
欺负	-1561
河南	-1562
猛人	-1563
祐樘	-1564
程度	-1565
第三	-1566
考验	-1567
衣服	-1568
认真	-1569
走到	-1570
了这个	-1571
很清楚	-1572
才发现	-1573
朱瞻基	-1574
毕竟是	-1575
▁应该说	-1576
一场	-1577
但这	-1578
兴趣	-1579
创造	-1580
反而	-1581
外面	-1582
多次	-1583
安全	-1584
宦官	-1585
家的	-1586
得太	-1587
智慧	-1588
未必	-1589
此刻	-1590
满意	-1591
统一	-1592
评价	-1593
跑到	-1594
过程	-1595
道路	-1596
防守	-1597
下来的	-1598
也算是	-1599
大多数	-1600
汪文言	-1601
告诉我们	-1602
9)	-1603
下属	-1604
也会	-1605
他一	-1606
保持	-1607
几位	-1608
嚣张	-1609
子孙	-1610
对此	-1611
寻找	-1612
干过	-1613
当了	-1614
慢慢	-1615
拒绝	-1616
着他	-1617
进宫	-1618
顺便	-1619
▁很快	-1620
不可能	-1621
几个人	-1622
手下的	-1623
指挥官	-1624
的工作	-1625
▁魏忠贤	-1626
万一	-1627
信念	-1628
勇猛	-1629
叛军	-1630
城下	-1631
大都	-1632
奇迹	-1633
完蛋	-1634
并且	-1635
很不	-1636
思考	-1637
懂得	-1638
房子	-1639
更是	-1640
案件	-1641
的同	-1642
职业	-1643
进来	-1644
已经是	-1645
的一个	-1646
解决了	-1647
赵文华	-1648
......	-1649
为他	-1650
为止	-1651
他只	-1652
凭借	-1653
后果	-1654
坐在	-1655
夜晚	-1656
她的	-1657
无疑	-1658
最大	-1659
礼部	-1660
糊涂	-1661
见到	-1662
见过	-1663
道德	-1664
部落	-1665
隆庆	-1666
失去了	-1667
孔有德	-1668
就如同	-1669
著名的	-1670
▁这个人	-1671
所有的人都	-1672
不停	-1673
兵的	-1674
和平	-1675
就打	-1676
就有	-1677
崩溃	-1678
并未	-1679
损失	-1680
杨慎	-1681
活动	-1682
父母	-1683
级别	-1684
统帅	-1685
联系	-1686
藩王	-1687
这支	-1688
选侍	-1689
顿时	-1690
接下来	-1691
最好的	-1692
的生活	-1693
的行为	-1694
相当于	-1695
史料记载	-1696
一刻	-1697
不足	-1698
也得	-1699
人才	-1700
公开	-1701
守军	-1702
官场	-1703
福建	-1704
达到	-1705
迎接	-1706
分别是	-1707
基本上	-1708
结束了	-1709
这两个	-1710
是这样的	-1711
共同	-1712
利用	-1713
却又	-1714
坏人	-1715
多的	-1716
太平	-1717
威风	-1718
年轻	-1719
成绩	-1720
拿着	-1721
无可	-1722
更加	-1723
曹钦	-1724
此地	-1725
死去	-1726
火枪	-1727
生命	-1728
的战	-1729
群众	-1730
三个人	-1731
了起来	-1732
和他的	-1733
如果你	-1734
官员们	-1735
▁当然了	-1736
▁朱厚照	-1737
一般说来	-1738
丰富	-1739
也被	-1740
件事	-1741
别说	-1742
升官	-1743
心里	-1744
接到	-1745
江湖	-1746
现实	-1747
相同	-1748
而出	-1749
而在	-1750
队伍	-1751
▁也先	-1752
▁这些	-1753
一定会	-1754
多年的	-1755
不过是个	-1756
▁不	-1757
上任	-1758
不着	-1759
丝毫	-1760
主事	-1761
之地	-1762
以后	-1763
天赋	-1764
尸体	-1765
山西	-1766
想象	-1767
感情	-1768
文忠	-1769
没法	-1770
破了	-1771
边界	-1772
镇守	-1773
集结	-1774
黑暗	-1775
▁面对	-1776
一个月	-1777
他的人	-1778
他虽然	-1779
朱厚熜	-1780
过去了	-1781
▁这句话	-1782
人的名字	-1783
0)	-1784
一时	-1785
不够	-1786
丞相	-1787
众人	-1788
优势	-1789
光辉	-1790
历经	-1791
周延	-1792
回事	-1793
好事	-1794
它的	-1795
就把	-1796
带兵	-1797
打败	-1798
拼命	-1799
无非	-1800
此后	-1801
水军	-1802
绝望	-1803
陈璘	-1804
▁既然	-1805
不住了	-1806
他自己	-1807
估计是	-1808
十几年	-1809
周延儒	-1810
日本人	-1811
这样做	-1812
问题的	-1813
▁要知道	-1814
不是一个	-1815
没有什么	-1816
还有一个	-1817
7)	-1818
万两	-1819
上阵	-1820
人员	-1821
倒霉	-1822
十五	-1823
哲学	-1824
大声	-1825
打得	-1826
找人	-1827
时任	-1828
月初	-1829
状元	-1830
率教	-1831
留下	-1832
看看	-1833
眼睛	-1834
知县	-1835
积极	-1836
称呼	-1837
笑着	-1838
老板	-1839
胡濙	-1840
记得	-1841
这也	-1842
难道	-1843
▁比如	-1844
万贵妃	-1845
几个月	-1846
有一天	-1847
的士兵	-1848
赵率教	-1849
这是个	-1850
▁于是他	-1851
▁张居正	-1852
▁总	-1853
上疏	-1854
上门	-1855
了点	-1856
人心	-1857
勇敢	-1858
向他	-1859
地主	-1860
安南	-1861
少年	-1862
廷弼	-1863
成就	-1864
成的	-1865
或许	-1866
早已	-1867
显纯	-1868
海盗	-1869
游戏	-1870
素质	-1871
给你	-1872
脾气	-1873
不同的	-1874
件事情	-1875
熊廷弼	-1876
的关系	-1877
的时间	-1878
统治者	-1879
许显纯	-1880
万万	-1881
三千	-1882
上朝	-1883
不干	-1884
两年	-1885
了几	-1886
份上	-1887
出场	-1888
北平	-1889
参与	-1890
各地	-1891
城头	-1892
士气	-1893
太后	-1894
封建	-1895
攻克	-1896
朱由	-1897
注定	-1898
清军	-1899
热闹	-1900
王安	-1901
的死	-1902
确定	-1903
规模	-1904
阿鲁	-1905
▁不过	-1906
▁经过	-1907
受到了	-1908
可能的	-1909
的时刻	-1910
蒙古人	-1911
▁是	-1912
三天	-1913
两天	-1914
他所	-1915
却也	-1916
去世	-1917
孙燧	-1918
已然	-1919
平日	-1920
忘记	-1921
意味	-1922
有多	-1923
汉奸	-1924
混乱	-1925
等着	-1926
管理	-1927
紧张	-1928
罪名	-1929
艰苦	-1930
西北	-1931
远征	-1932
镇定	-1933
▁他们	-1934
十四年	-1935
李东阳	-1936
▁朱祁镇	-1937
实在是个	-1938
就会发现	-1939
无奈之下	-1940
惊奇地发现	-1941
这样一句话	-1942
一日	-1943
之处	-1944
商量	-1945
地说	-1946
坏事	-1947
平壤	-1948
机构	-1949
深刻	-1950
混混	-1951
神秘	-1952
远远	-1953
逐渐	-1954
非但	-1955
▁这下	-1956
小小的	-1957
意思是	-1958
无论是	-1959
李文忠	-1960
▁胡宗宪	-1961
因为他们	-1962
不在	-1963
你就	-1964
使得	-1965
其次	-1966
受到	-1967
各种	-1968
固然	-1969
大将	-1970
如今	-1971
年纪	-1972
手里	-1973
折不	-1974
担心	-1975
政策	-1976
果然	-1977
标准	-1978
相反	-1979
让你	-1980
训练	-1981
赶到	-1982
这段	-1983
随从	-1984
高手	-1985
但他们	-1986
只是个	-1987
完成了	-1988
特别是	-1989
的明军	-1990
的计划	-1991
第二个	-1992
而言之	-1993
话不说	-1994
阿鲁台	-1995
是因为他	-1996
▁不久之后	-1997
一带	-1998
不大	-1999
事的	-2000
出兵	-2001
回到	-2002
回头	-2003
坚守	-2004
声音	-2005
外号	-2006
够了	-2007
好好	-2008
干部	-2009
智商	-2010
炳文	-2011
烈的	-2012
除掉	-2013
?!”	-2014
可能是	-2015
同志的	-2016
很快就	-2017
折不扣	-2018
朱祐樘	-2019
李选侍	-2020
王大人	-2021
留下了	-2022
的军事	-2023
的命令	-2024
的理由	-2025
翰林院	-2026
耿炳文	-2027
2)	-2028
?!	-2029
▁为	-2030
他把	-2031
册立	-2032
前方	-2033
反击	-2034
发言	-2035
吃惊	-2036
合适	-2037
失望	-2038
左光	-2039
强盗	-2040
得很	-2041
推荐	-2042
正义	-2043
洪都	-2044
还得	-2045
道的	-2046
黑锅	-2047
▁天启	-2048
▁按照	-2049
了一下	-2050
他不但	-2051
是没有	-2052
现在的	-2053
的东西	-2054
的到来	-2055
的那个	-2056
到了这个	-2057
13	-2058
一份	-2059
三人	-2060
主义	-2061
仇鸾	-2062
使命	-2063
六部	-2064
到时	-2065
到此	-2066
吉祥	-2067
同学	-2068
哪个	-2069
多了	-2070
大概	-2071
天天	-2072
太过	-2073
开口	-2074
慌乱	-2075
我是	-2076
把人	-2077
教训	-2078
熟悉	-2079
理会	-2080
礼仪	-2081
还算	-2082
铁铉	-2083
▁皇帝	-2084
帝国的	-2085
是不能	-2086
曹吉祥	-2087
说了一	-2088
▁因为他	-2089
▁第二天	-2090
▁陈友谅	-2091
也不例外	-2092
二话不说	-2093
他是一个	-2094
为何	-2095
他曾	-2096
其余	-2097
大权	-2098
官职	-2099
岛津	-2100
恐惧	-2101
感动	-2102
提拔	-2103
暂时	-2104
最多	-2105
某种	-2106
此外	-2107
没事	-2108
礼物	-2109
离开	-2110
而去	-2111
衙门	-2112
记录	-2113
重的	-2114
黄金	-2115
——“	-2116
▁此外	-2117
也只能	-2118
人生的	-2119
全军覆	-2120
就开始	-2121
左光斗	-2122
改变了	-2123
明代的	-2124
是比较	-2125
的发展	-2126
离开了	-2127
因为他的	-2128
不及	-2129
之路	-2130
以前	-2131
公元	-2132
南星	-2133
发起	-2134
大营	-2135
好处	-2136
客观	-2137
宫女	-2138
就好	-2139
帖木	-2140
形容	-2141
很高	-2142
或者	-2143
指使	-2144
白痴	-2145
的表	-2146
目瞪	-2147
眼的	-2148
考官	-2149
苦苦	-2150
装备	-2151
角度	-2152
郭子	-2153
都能	-2154
随时	-2155
难得	-2156
驻守	-2157
▁这一	-2158
一切都	-2159
他十分	-2160
几天后	-2161
将领们	-2162
就可以	-2163
朝廷的	-2164
残酷的	-2165
没想到	-2166
自然是	-2167
赵南星	-2168
▁然后他	-2169
袁崇焕的	-2170
一千	-2171
不对	-2172
不满	-2173
专门	-2174
了吧	-2175
人民	-2176
从小	-2177
他为	-2178
传来	-2179
何况	-2180
做梦	-2181
先锋	-2182
变成	-2183
口呆	-2184
在家	-2185
埋伏	-2186
太上	-2187
头上	-2188
头领	-2189
完美	-2190
应天	-2191
感到	-2192
抉择	-2193
把握	-2194
整个	-2195
文正	-2196
本书	-2197
比他	-2198
气的	-2199
流传	-2200
看法	-2201
眼里	-2202
耐心	-2203
逮捕	-2204
鉴于	-2205
陷入	-2206
靖难	-2207
了很久	-2208
十一月	-2209
的主要	-2210
的目的	-2211
确实是	-2212
绝不会	-2213
另一个人	-2214
目瞪口呆	-2215
原因很简单	-2216
▁与	-2217
▁最	-2218
一段	-2219
上来	-2220
今日	-2221
他对	-2222
但我	-2223
俘虏	-2224
停止	-2225
几百	-2226
北方	-2227
千古	-2228
可见	-2229
呈秀	-2230
哥哥	-2231
地盘	-2232
城的	-2233
女真	-2234
孝孺	-2235
害怕	-2236
少数	-2237
干得	-2238
战败	-2239
把戏	-2240
最好	-2241
朝中	-2242
生存	-2243
的书	-2244
看守	-2245
科举	-2246
称号	-2247
突破	-2248
老家	-2249
职位	-2250
资格	-2251
通过	-2252
郎中	-2253
部门	-2254
都被	-2255
防线	-2256
顾宪	-2257
预料	-2258
▁当时	-2259
京城的	-2260
他立刻	-2261
但毕竟	-2262
在当时	-2263
崔呈秀	-2264
是一种	-2265
的同时	-2266
获得了	-2267
郭子兴	-2268
意想不到	-2269
最后一个	-2270
▁刘	-2271
一顿	-2272
不幸	-2273
不死	-2274
中间	-2275
义弘	-2276
争取	-2277
他说	-2278
做到	-2279
动机	-2280
半天	-2281
受贿	-2282
头脑	-2283
安心	-2284
审讯	-2285
宫里	-2286
当官	-2287
怀疑	-2288
怎样	-2289
意志	-2290
愚蠢	-2291
承认	-2292
抓住	-2293
游击	-2294
相对	-2295
答复	-2296
继位	-2297
老爹	-2298
背景	-2299
船队	-2300
询问	-2301
都会	-2302
▁在这	-2303
严嵩的	-2304
他相信	-2305
够意思	-2306
当上了	-2307
提出了	-2308
方孝孺	-2309
是一件	-2310
的判断	-2311
算是个	-2312
致命的	-2313
关宁铁骑	-2314
只是一个	-2315
只是因为	-2316
岛津义弘	-2317
折不扣的	-2318
》,	-2319
七品	-2320
二位	-2321
亲戚	-2322
他去	-2323
企图	-2324
众多	-2325
伟大	-2326
全力	-2327
动作	-2328
化贞	-2329
即刻	-2330
又是	-2331
变得	-2332
喜宁	-2333
地上	-2334
妥协	-2335
学的	-2336
客氏	-2337
干嘛	-2338
待遇	-2339
惊讶	-2340
打开	-2341
收入	-2342
朝政	-2343
正好	-2344
短短	-2345
纳哈	-2346
给我	-2347
船只	-2348
观察	-2349
设置	-2350
跟随	-2351
▁于谦	-2352
▁而且	-2353
也先的	-2354
了自己	-2355
交给了	-2356
他认为	-2357
但他的	-2358
皇长子	-2359
虽然他	-2360
许多人	-2361
还没等	-2362
(155	-2363
全军覆没	-2364
张居正的	-2365
这两个人	-2366
不懂	-2367
严党	-2368
严厉	-2369
中了	-2370
之余	-2371
事业	-2372
人不	-2373
他才	-2374
他被	-2375
使臣	-2376
几次	-2377
出击	-2378
击溃	-2379
千里	-2380
发了	-2381
合理	-2382
唐寅	-2383
地的	-2384
大大	-2385
天子	-2386
太大	-2387
奇特	-2388
小心	-2389
弱点	-2390
强悍	-2391
得上	-2392
性命	-2393
悲痛	-2394
我要	-2395
挑选	-2396
是在	-2397
未能	-2398
朱常	-2399
深入	-2400
火器	-2401
玩笑	-2402
痛哭	-2403
看了	-2404
知识	-2405
种种	-2406
笑容	-2407
老头	-2408
觉悟	-2409
角色	-2410
详细	-2411
还会	-2412
这下	-2413
这两	-2414
速度	-2415
▁第十	-2416
也可以	-2417
句话说	-2418
怎么样	-2419
有很多	-2420
朱由校	-2421
的结果	-2422
的部队	-2423
还有个	-2424
陷入了	-2425
内阁首辅	-2426
换句话说	-2427
这样的人	-2428
魏忠贤的	-2429
1)	-2430
不给	-2431
丢了	-2432
们的	-2433
十月	-2434
印象	-2435
呆了	-2436
圈套	-2437
坚固	-2438
对抗	-2439
惊慌	-2440
感叹	-2441
杨荣	-2442
此次	-2443
没过	-2444
清醒	-2445
满足	-2446
白银	-2447
的王	-2448
者的	-2449
观点	-2450
视着	-2451
让我	-2452
谕令	-2453
进京	-2454
靠谱	-2455
▁根据	-2456
一个叫	-2457
也是个	-2458
战场上	-2459
是为了	-2460
的所有	-2461
的朱棣	-2462
的话说	-2463
达到了	-2464
这一天	-2465
这一招	-2466
这也是	-2467
都不是	-2468
▁当时的	-2469
十分高兴	-2470
有一个人	-2471
的情况下	-2472
一封	-2473
三才	-2474
不服	-2475
二百	-2476
令人	-2477
保卫	-2478
倒了	-2479
充军	-2480
入宫	-2481
写了	-2482
冲击	-2483
到处	-2484
发配	-2485
另外	-2486
可怜	-2487
回复	-2488
国的	-2489
够的	-2490
妻子	-2491
孙镗	-2492
很少	-2493
惯例	-2494
擅长	-2495
是谁	-2496
杨鹤	-2497
桂萼	-2498
毛海	-2499
海关	-2500
滑稽	-2501
用来	-2502
说他	-2503
距离	-2504
这座	-2505
闹腾	-2506
随便	-2507
青史	-2508
马屁	-2509
▁一个	-2510
不能再	-2511
只剩下	-2512
回来了	-2513
对他的	-2514
拿出了	-2515
无数次	-2516
是可以	-2517
朱文正	-2518
毛海峰	-2519
的历史	-2520
的胜利	-2521
的说法	-2522
的那些	-2523
身边的	-2524
进入了	-2525
遇到了	-2526
(163	-2527
▁之所以	-2528
东林党的	-2529
没有办法	-2530
陈友谅的	-2531
一品	-2532
一看	-2533
与他	-2534
五月	-2535
他想	-2536
公文	-2537
压力	-2538
名叫	-2539
土匪	-2540
坚定	-2541
张经	-2542
成化	-2543
打过	-2544
无能	-2545
有何	-2546
朱标	-2547
死不	-2548
清朝	-2549
狡猾	-2550
真实	-2551
程序	-2552
群臣	-2553
莫名	-2554
赶走	-2555
连续	-2556
道衍	-2557
风光	-2558
▁但在	-2559
▁夏言	-2560
▁最后	-2561
两个字	-2562
古以来	-2563
已经被	-2564
干掉了	-2565
的人们	-2566
的方式	-2567
袁督师	-2568
说什么	-2569
二十一年	-2570
对他而言	-2571
胡宗宪的	-2572
这位兄弟	-2573
5)	-2574
七月	-2575
不利	-2576
不打	-2577
不清	-2578
不通	-2579
产生	-2580
他和	-2581
体现	-2582
先进	-2583
光宗	-2584
八月	-2585
其妙	-2586
几句	-2587
别的	-2588
南昌	-2589
圣贤	-2590
奉命	-2591
对策	-2592
寿辉	-2593
将是	-2594
属下	-2595
忍受	-2596
户部	-2597
拼死	-2598
挽救	-2599
援军	-2600
放过	-2601
是否	-2602
权谋	-2603
来找	-2604
正直	-2605
江山	-2606
没钱	-2607
犯人	-2608
生死	-2609
而不	-2610
著名	-2611
进步	-2612
都督	-2613
▁张璁	-2614
▁虽说	-2615
不是个	-2616
之后的	-2617
实在不	-2618
很大的	-2619
徐寿辉	-2620
投降了	-2621
无数的	-2622
日军的	-2623
此同时	-2624
的一生	-2625
的任务	-2626
的第一	-2627
的答案	-2628
看起来	-2629
顾宪成	-2630
(156	-2631
(158	-2632
二十多年	-2633
就是这样	-2634
最重要的	-2635
礼部尚书	-2636
莫名其妙	-2637
三百	-2638
下场	-2639
个月	-2640
之内	-2641
云南	-2642
代价	-2643
传庭	-2644
但要	-2645
再也	-2646
军营	-2647
冯胜	-2648
前去	-2649
吓得	-2650
唯恐	-2651
处罚	-2652
工程	-2653
想来	-2654
战死	-2655
接替	-2656
故意	-2657
明史	-2658
死人	-2659
父子	-2660
生气	-2661
看过	-2662
紧急	-2663
范围	-2664
这就	-2665
这类	-2666
追究	-2667
那一	-2668
骂人	-2669
骑马	-2670
▁可惜	-2671
▁大家	-2672
▁这次	-2673
一件事	-2674
他似乎	-2675
太上皇	-2676
山海关	-2677
怎么会	-2678
更大的	-2679
朝廷里	-2680
(157	-2681
也就是说	-2682
他之所以	-2683
他的父亲	-2684
作为一个	-2685
到这个份上	-2686
想不到的是	-2687
所有的一切	-2688
这个世界上	-2689
3)	-2690
8)	-2691
▁你	-2692
七十	-2693
不安	-2694
世上	-2695
两种	-2696
个个	-2697
为国	-2698
今后	-2699
作弊	-2700
典型	-2701
再说	-2702
加藤	-2703
及时	-2704
合作	-2705
后人	-2706
国内	-2707
土木	-2708
城里	-2709
大败	-2710
家伙	-2711
寻常	-2712
开会	-2713
开门	-2714
征服	-2715
忽略	-2716
性的	-2717
情绪	-2718
成长	-2719
我就	-2720
整日	-2721
明知	-2722
显示	-2723
有效	-2724
杀死	-2725
杨博	-2726
没错	-2727
清正	-2728
狼狈	-2729
行了	-2730
见面	-2731
规律	-2732
证据	-2733
诡计	-2734
遭遇	-2735
部级	-2736
钱的	-2737
门口	-2738
▁刘瑾	-2739
▁无论	-2740
一直在	-2741
之前的	-2742
也不用	-2743
听到了	-2744
当然了	-2745
朱常洛	-2746
的一幕	-2747
的家伙	-2748
第二次	-2749
长时间	-2750
隐藏着	-2751
▁戚继光	-2752
也就是个	-2753
在我看来	-2754
是正确的	-2755
▁人	-2756
▁就	-2757
一万	-2758
下手	-2759
不定	-2760
不愧	-2761
不胜	-2762
主帅	-2763
做出	-2764
出战	-2765
刘綎	-2766
功劳	-2767
动了	-2768
反抗	-2769
同党	-2770
后世	-2771
城市	-2772
太师	-2773
学家	-2774
宝剑	-2775
实地	-2776
宫中	-2777
开战	-2778
想去	-2779
所说	-2780
找个	-2781
抢掠	-2782
招呼	-2783
挺身	-2784
掌门	-2785
政务	-2786
旁边	-2787
无所	-2788
无畏	-2789
无辜	-2790
有限	-2791
正如	-2792
武装	-2793
济南	-2794
深夜	-2795
热情	-2796
牢房	-2797
的好	-2798
精明	-2799
糊弄	-2800
索性	-2801
绝非	-2802
能打	-2803
说出	-2804
败退	-2805
那样	-2806
驿站	-2807
2),	-2808
▁是的	-2809
▁正德	-2810
▁洪武	-2811
下达了	-2812
他开始	-2813
几百年	-2814
到京城	-2815
却并不	-2816
大人的	-2817
孙传庭	-2818
就是不	-2819
我们的	-2820
的一天	-2821
纳哈出	-2822
给了他	-2823
还是要	-2824
问题是	-2825
具体说来	-2826
发动进攻	-2827
接下来的	-2828
)、	-2829
4)	-2830
不时	-2831
九月	-2832
也罢	-2833
他有	-2834
以下	-2835
伤亡	-2836
倒是	-2837
光明	-2838
出一	-2839
同样	-2840
后台	-2841
向着	-2842
和谈	-2843
哈木	-2844
在意	-2845
堪称	-2846
外交	-2847
奸臣	-2848
子弟	-2849
子澄	-2850
家军	-2851
市场	-2852
幸福	-2853
应昌	-2854
情报	-2855
战船	-2856
抵达	-2857
描述	-2858
文盲	-2859
无事	-2860
有钱	-2861
杨镐	-2862
气得	-2863
火炮	-2864
然大	-2865
状态	-2866
睡觉	-2867
立马	-2868
算盘	-2869
绝顶	-2870
自从	-2871
道士	-2872
郭勋	-2873
震惊	-2874
青年	-2875
也不敢	-2876
他们是	-2877
军队的	-2878
发出了	-2879
小人物	-2880
是皇帝	-2881
用今天	-2882
的敌人	-2883
绝不是	-2884
都知道	-2885
马哈木	-2886
麻烦了	-2887
▁皇太极	-2888
大明王朝	-2889
就此结束	-2890
这个世界	-2891
这个名字	-2892
。〗	-2893
上千	-2894
事后	-2895
仇恨	-2896
关外	-2897
出于	-2898
前的	-2899
向了	-2900
告状	-2901
地讲	-2902
基础	-2903
多么	-2904
头了	-2905
姑娘	-2906
官位	-2907
宣府	-2908
小人	-2909
干净	-2910
平凡	-2911
平民	-2912
张辅	-2913
承担	-2914
方便	-2915
无一	-2916
是人	-2917
李时	-2918
极大	-2919
极点	-2920
步兵	-2921
湖广	-2922
灭了	-2923
现象	-2924
离去	-2925
脸上	-2926
袁彬	-2927
说得	-2928
跟他	-2929
部署	-2930
钱龙	-2931
长官	-2932
长得	-2933
他确实	-2934
发现了	-2935
在这场	-2936
太子的	-2937
就是了	-2938
情况下	-2939
找不到	-2940
极大的	-2941
派出了	-2942
父亲的	-2943
王化贞	-2944
着他的	-2945
见到了	-2946
钱龙锡	-2947
黄子澄	-2948
他很清楚	-2949
挺身而出	-2950
没有任何	-2951
相对而言	-2952
蒙古骑兵	-2953
不折不扣的	-2954
▁那	-2955
一番	-2956
三位	-2957
不发	-2958
不高	-2959
中军	-2960
之辈	-2961
乖乖	-2962
五千	-2963
他已	-2964
代的	-2965
作者	-2966
你了	-2967
偶然	-2968
先后	-2969
六月	-2970
具有	-2971
凑合	-2972
凤阳	-2973
分配	-2974
动员	-2975
叔叔	-2976
另一	-2977
吉士	-2978
同了	-2979
四川	-2980
姚广	-2981
子监	-2982
将他	-2983
形象	-2984
恰好	-2985
恰恰	-2986
惨重	-2987
战略	-2988
投机	-2989
指示	-2990
接待	-2991
搞点	-2992
收了	-2993
政权	-2994
敏锐	-2995
无关	-2996
来得	-2997
没能	-2998
看出	-2999
神仙	-3000
稳定	-3001
自杀	-3002
行礼	-3003
谋反	-3004
起兵	-3005
超越	-3006
跑去	-3007
部将	-3008
阎王	-3009
一个是	-3010
下一个	-3011
不喜欢	-3012
不要紧	-3013
到地方	-3014
到这里	-3015
十一年	-3016
可能会	-3017
姚广孝	-3018
对方的	-3019
就在他	-3020
庶吉士	-3021
我也不	-3022
所以在	-3023
找来了	-3024
无非是	-3025
时不时	-3026
比起来	-3027
的决定	-3028
的太监	-3029
的徐阶	-3030
经历了	-3031
考虑到	-3032
被称为	-3033
读书人	-3034
▁朱祁钰	-3035
只是为了	-3036
的事情发生了	-3037
一刀	-3038
一动	-3039
一同	-3040
不远	-3041
也在	-3042
五品	-3043
五日	-3044
交代	-3045
人了	-3046
他用	-3047
何时	-3048
佩服	-3049
信心	-3050
力的	-3051
办公	-3052
半年	-3053
却很	-3054
召见	-3055
史称	-3056
司法	-3057
因此	-3058
在内	-3059
大典	-3060
大喜	-3061
头疼	-3062
奋斗	-3063
弓箭	-3064
思索	-3065
想起	-3066
手上	-3067
批准	-3068
改革	-3069
攻打	-3070
文武	-3071
正德	-3072
目光	-3073
纵横	-3074
老乡	-3075
老天	-3076
若干	-3077
裕王	-3078
跑来	-3079
还乡	-3080
逃走	-3081
通俗	-3082
陈东	-3083
马顺	-3084
7),	-3085
▁按说	-3086
▁据说	-3087
▁而在	-3088
▁首先	-3089
他明白	-3090
国子监	-3091
是绝对	-3092
杀掉了	-3093
的内容	-3094
的结局	-3095
还是有	-3096
那么多	-3097
(151	-3098
(152	-3099
▁于是在	-3100
为什么要	-3101
大明帝国	-3102
实在让人	-3103
就不同了	-3104
明朝政府	-3105
着自己的	-3106
解决问题	-3107
内阁大学士	-3108
不少	-3109
不理	-3110
世贞	-3111
两句	-3112
为主	-3113
书生	-3114
京察	-3115
人也	-3116
从哲	-3117
他从	-3118
传说	-3119
你能	-3120
做的	-3121
兵器	-3122
军中	-3123
准确	-3124
办了	-3125
周围	-3126
四大	-3127
天地	-3128
奏章	-3129
孤独	-3130
守将	-3131
应对	-3132
废话	-3133
思维	-3134
总结	-3135
战法	-3136
投奔	-3137
抱负	-3138
拥有	-3139
支撑	-3140
整顿	-3141
料到	-3142
无赖	-3143
有趣	-3144
正确	-3145
派的	-3146
王之	-3147
王子	-3148
玩命	-3149
百官	-3150
的名	-3151
穿着	-3152
胜负	-3153
荣誉	-3154
讨厌	-3155
轻松	-3156
进城	-3157
退了	-3158
通报	-3159
闲着	-3160
风险	-3161
风雨	-3162
▁只有	-3163
▁高拱	-3164
丝毫不	-3165
些什么	-3166
副总兵	-3167
十五年	-3168
四个字	-3169
国家的	-3170
在哪里	-3171
天下的	-3172
如果不	-3173
张先生	-3174
恢复了	-3175
无数人	-3176
没什么	-3177
的举动	-3178
的人生	-3179
的精神	-3180
而他的	-3181
走到了	-3182
▁因为在	-3183
▁徐有贞	-3184
就是一个	-3185
很多人都	-3186
越来越多	-3187
▁一般说来	-3188
王守仁先生	-3189
▁好	-3190
▁按	-3191
不妙	-3192
不肯	-3193
不让	-3194
之际	-3195
互相	-3196
人多	-3197
会试	-3198
你来	-3199
修道	-3200
允许	-3201
全都	-3202
八岁	-3203
六日	-3204
共计	-3205
刀剑	-3206
功臣	-3207
区别	-3208
十万	-3209
十三	-3210
圣旨	-3211
场景	-3212
大爷	-3213
奈何	-3214
女儿	-3215
好歹	-3216
安门	-3217
富贵	-3218
导致	-3219
尽心	-3220
局面	-3221
岁月	-3222
带头	-3223
平定	-3224
平息	-3225
徐珵	-3226
必死	-3227
忍耐	-3228
总攻	-3229
所料	-3230
手持	-3231
才会	-3232
招待	-3233
提到	-3234
数字	-3235
无名	-3236
明确	-3237
朝代	-3238
极度	-3239
概括	-3240
死伤	-3241
满了	-3242
眼泪	-3243
短暂	-3244
祖宗	-3245
策划	-3246
简直	-3247
精力	-3248
统计	-3249
而来	-3250
英勇	-3251
表达	-3252
讨论	-3253
贸易	-3254
资历	-3255
资本	-3256
趁机	-3257
辛苦	-3258
采取	-3259
重臣	-3260
金银	-3261
顶点	-3262
风云	-3263
▁关于	-3264
▁永乐	-3265
▁至此	-3266
▁除了	-3267
也没人	-3268
了一件	-3269
副部长	-3270
城内的	-3271
太监的	-3272
就必须	-3273
战役中	-3274
抓住了	-3275
接受了	-3276
政治家	-3277
方从哲	-3278
是对的	-3279
李三才	-3280
的位置	-3281
的大臣	-3282
的日子	-3283
的朋友	-3284
认识到	-3285
这一年	-3286
这玩意	-3287
选择了	-3288
他的儿子	-3289
却是一个	-3290
奇怪的是	-3291
实在太过	-3292
做出了一个	-3293
努尔哈赤的	-3294
据史料记载	-3295
更重要的是	-3296
终于找到了	-3297
▁大	-3298
一支	-3299
上下	-3300
上百	-3301
不吃	-3302
不必	-3303
不识	-3304
两万	-3305
之道	-3306
二人	-3307
亮的	-3308
住在	-3309
你说	-3310
侄子	-3311
便宜	-3312
分为	-3313
分子	-3314
前辈	-3315
危急	-3316
叛徒	-3317
同事	-3318
圣人	-3319
外加	-3320
多月	-3321
失陷	-3322
宁夏	-3323
完后	-3324
尊严	-3325
尊重	-3326
小子	-3327
帮他	-3328
帮忙	-3329
年头	-3330
当场	-3331
德胜	-3332
悲剧	-3333
懵了	-3334
我也	-3335
放了	-3336
数量	-3337
此战	-3338
每年	-3339
没了	-3340
法司	-3341
消灭	-3342
混了	-3343
漏洞	-3344
特意	-3345
狠狠	-3346
皇宫	-3347
盛世	-3348
真相	-3349
石星	-3350
综合	-3351
而死	-3352
脑筋	-3353
自由	-3354
要说	-3355
诏狱	-3356
迅速	-3357
还敢	-3358
遗憾	-3359
邻居	-3360
都很	-3361
长的	-3362
难题	-3363
0),	-3364
▁下面	-3365
▁之后	-3366
▁此后	-3367
一般人	-3368
不断地	-3369
两个月	-3370
他本人	-3371
几句话	-3372
出来了	-3373
十二月	-3374
可以用	-3375
向皇帝	-3376
回了家	-3377
土木堡	-3378
对他说	-3379
就算是	-3380
把他们	-3381
把自己	-3382
拒绝了	-3383
活下去	-3384
老人家	-3385
还经常	-3386
这么多	-3387
进行了	-3388
▁李如松	-3389
他并没有	-3390
站了出来	-3391
这么多年	-3392
想出了一个	-3393
中原	-3394
久的	-3395
二品	-3396
五百	-3397
保护	-3398
借口	-3399
做好	-3400
养老	-3401
刘健	-3402
前所	-3403
厚的	-3404
呆子	-3405
四月	-3406
坚信	-3407
大受	-3408
完毕	-3409
家族	-3410
封赏	-3411
尚未	-3412
就跑	-3413
年龄	-3414
并将	-3415
廷杖	-3416
开国	-3417
张差	-3418
打到	-3419
找来	-3420
护卫	-3421
换了	-3422
旅游	-3423
明了	-3424
朱能	-3425
格的	-3426
汤和	-3427
派遣	-3428
片刻	-3429
牺牲	-3430
王府	-3431
的这	-3432
祖义	-3433
等了	-3434
纳闷	-3435
罢了	-3436
耳朵	-3437
议论	-3438
败仗	-3439
路军	-3440
邱福	-3441
郁闷	-3442
银子	-3443
静静	-3444
顽强	-3445
▁以上	-3446
▁看着	-3447
▁第二	-3448
▁这里	-3449
一下子	-3450
一般的	-3451
了一封	-3452
以往的	-3453
作出了	-3454
出现在	-3455
却始终	-3456
告诉了	-3457
得到的	-3458
成功的	-3459
战争中	-3460
戚家军	-3461
敌人的	-3462
是什么	-3463
是这样	-3464
来形容	-3465
熊总督	-3466
的原因	-3467
的态度	-3468
给皇帝	-3469
这似乎	-3470
陈祖义	-3471
也没什么	-3472
好不容易	-3473
所有人都	-3474
的那一天	-3475
老婆孩子	-3476
大致相当于	-3477
出人意料的是	-3478
▁和	-3479
一击	-3480
一大	-3481
一致	-3482
一言	-3483
一道	-3484
三日	-3485
三月	-3486
上路	-3487
事了	-3488
五个	-3489
他连	-3490
伯虎	-3491
伯颜	-3492
伺候	-3493
低调	-3494
你有	-3495
倒也	-3496
入城	-3497
八个	-3498
写的	-3499
准了	-3500
功夫	-3501
动静	-3502
参将	-3503
取得	-3504
可他	-3505
听从	-3506
善于	-3507
囚犯	-3508
回报	-3509
大吃	-3510
天气	-3511
宝座	-3512
实话	-3513
实践	-3514
家庭	-3515
张玉	-3516
当初	-3517
怒了	-3518
恶的	-3519
承训	-3520
抄家	-3521
拥而	-3522
收复	-3523
文件	-3524
方案	-3525
无限	-3526
旨意	-3527
景象	-3528
暴力	-3529
正统	-3530
死得	-3531
沈链	-3532
混个	-3533
混到	-3534
爷爷	-3535
牢牢	-3536
生的	-3537
用心	-3538
由此	-3539
登上	-3540
的本	-3541
看得	-3542
神机	-3543
稀泥	-3544
符合	-3545
策略	-3546
精彩	-3547
老兄	-3548
背叛	-3549
表明	-3550
规矩	-3551
设计	-3552
贵族	-3553
资料	-3554
路线	-3555
过得	-3556
逻辑	-3557
那时	-3558
都将	-3559
配合	-3560
阵型	-3561
高丽	-3562
3),	-3563
▁但这	-3564
▁如此	-3565
▁杨涟	-3566
▁第一	-3567
▁至于	-3568
▁蓝玉	-3569
不愿意	-3570
也知道	-3571
十二年	-3572
历史中	-3573
在京城	-3574
多少人	-3575
就只能	-3576
就成了	-3577
就行了	-3578
很明白	-3579
很有点	-3580
惊人的	-3581
慢慢地	-3582
手中的	-3583
投降的	-3584
拉出去	-3585
无所谓	-3586
是个很	-3587
的发生	-3588
的父亲	-3589
的老婆	-3590
的表情	-3591
祖承训	-3592
给他的	-3593
聪明人	-3594
胜利者	-3595
说自己	-3596
还不够	-3597
似乎并不	-3598
加藤清正	-3599
实在有点	-3600
王守仁的	-3601
的那一刻	-3602
这个时候	-3603
6)	-3604
▁话	-3605
一息	-3606
三党	-3607
上前	-3608
不信	-3609
不已	-3610
不算	-3611
东南	-3612
为此	-3613
亲眼	-3614
从他	-3615
仪式	-3616
价值	-3617
依靠	-3618
信的	-3619
出头	-3620
卓越	-3621
南城	-3622
即位	-3623
又被	-3624
哭笑	-3625
因素	-3626
增加	-3627
奄奄	-3628
娱乐	-3629
宏祖	-3630
年号	-3631
并在	-3632
幸运	-3633
得住	-3634
成本	-3635
战友	-3636
战后	-3637
承诺	-3638
折磨	-3639
报仇	-3640
抵挡	-3641
据点	-3642
援兵	-3643
攻破	-3644
放火	-3645
是指	-3646
更有	-3647
未来	-3648
机关	-3649
来自	-3650
杨善	-3651
档次	-3652
欲望	-3653
武士	-3654
混得	-3655
灭亡	-3656
现场	-3657
的钱	-3658
眼了	-3659
破绽	-3660
祖宽	-3661
祖父	-3662
终点	-3663
自尽	-3664
诚意	-3665
读过	-3666
跑路	-3667
过分	-3668
追求	-3669
野心	-3670
阵势	-3671
陷阱	-3672
障碍	-3673
面的	-3674
面目	-3675
1),	-3676
4),	-3677
不久后	-3678
不错的	-3679
了回来	-3680
凭什么	-3681
到达了	-3682
十三年	-3683
却依然	-3684
历史的	-3685
同意了	-3686
地方官	-3687
地说道	-3688
徐宏祖	-3689
得多了	-3690
意味着	-3691
打了一	-3692
把这个	-3693
是很难	-3694
派人去	-3695
特殊的	-3696
的仁兄	-3697
的命运	-3698
的日军	-3699
站出来	-3700
肯定的	-3701
(140	-3702
▁很明显	-3703
▁朱见深	-3704
▁朱高煦	-3705
什么时候	-3706
哭笑不得	-3707
在此之前	-3708
奄奄一息	-3709
没过多久	-3710
贪污受贿	-3711
这一举动	-3712
这个人的	-3713
这封奏疏	-3714
中国历史上	-3715
他没有想到	-3716
▁到	-3717
。(	-3718
上次	-3719
上班	-3720
上说	-3721
不绝	-3722
不走	-3723
不顾	-3724
世间	-3725
为官	-3726
人事	-3727
侍卫	-3728
入侵	-3729
公正	-3730
六个	-3731
具备	-3732
千万	-3733
单位	-3734
厚道	-3735
发火	-3736
吃饱	-3737
在握	-3738
大乱	-3739
大喝	-3740
学问	-3741
宣布	-3742
就将	-3743
就得	-3744
居庸	-3745
广西	-3746
延续	-3747
急了	-3748
找了	-3749
掌控	-3750
文升	-3751
明明	-3752
有时	-3753
来源	-3754
歼灭	-3755
殷士	-3756
深的	-3757
火铳	-3758
犯罪	-3759
琢磨	-3760
生涯	-3761
电视	-3762
突围	-3763
统统	-3764
胜的	-3765
脖子	-3766
花样	-3767
解脱	-3768
诏书	-3769
贝勒	-3770
迁都	-3771
还很	-3772
那封	-3773
长达	-3774
除此	-3775
靠近	-3776
风波	-3777
黄河	-3778
▁明军	-3779
不断的	-3780
不需要	-3781
为太子	-3782
也十分	-3783
似乎也	-3784
但由于	-3785
其中的	-3786
大都是	-3787
奇怪的	-3788
宋应昌	-3789
容易的	-3790
巨大的	-3791
并最终	-3792
收到了	-3793
斗争中	-3794
汪直的	-3795
深刻的	-3796
理解的	-3797
的最后	-3798
的眼神	-3799
答应了	-3800
被彻底	-3801
说到底	-3802
那样的	-3803
黑社会	-3804
▁朱棣的	-3805
一个人的	-3806
一个问题	-3807
一定能够	-3808
介绍一下	-3809
反应过来	-3810
如果没有	-3811
意料的是	-3812
是不行的	-3813
最后一次	-3814
虽然没有	-3815
让人难以	-3816
还有什么	-3817
▁这位仁兄	-3818
并没有什么	-3819
到了这个地步	-3820
用今天的话说	-3821
00	-3822
▁她	-3823
一半	-3824
一套	-3825
七日	-3826
丈夫	-3827
上台	-3828
不开	-3829
不掉	-3830
不朽	-3831
不来	-3832
两百	-3833
保住	-3834
全家	-3835
八十	-3836
公务	-3837
内部	-3838
再到	-3839
军饷	-3840
几分	-3841
县令	-3842
发射	-3843
只求	-3844
可施	-3845
听见	-3846
告别	-3847
四维	-3848
圆满	-3849
地形	-3850
地狱	-3851
大哥	-3852
妖书	-3853
安定	-3854
安慰	-3855
官僚	-3856
官吏	-3857
家屏	-3858
对话	-3859
小事	-3860
就当	-3861
幕后	-3862
得起	-3863
怀恩	-3864
悲惨	-3865
慌张	-3866
我军	-3867
抢了	-3868
挺进	-3869
提供	-3870
擅自	-3871
操作	-3872
有所	-3873
特长	-3874
狐狸	-3875
疯子	-3876
登州	-3877
的重	-3878
罗龙	-3879
罪状	-3880
至正	-3881
艰难	-3882
被俘	-3883
要去	-3884
试探	-3885
谁也	-3886
软弱	-3887
轻易	-3888
辉煌	-3889
辽王	-3890
连个	-3891
迟早	-3892
钥匙	-3893
随意	-3894
顾大	-3895
预备	-3896
9),	-3897
▁张永	-3898
▁江彬	-3899
▁要说	-3900
▁这样	-3901
▁那么	-3902
不停地	-3903
不明白	-3904
了出去	-3905
任何人	-3906
做生意	-3907
几万人	-3908
到来了	-3909
在自己	-3910
多年前	-3911
存在着	-3912
愤怒了	-3913
普通的	-3914
狠狠地	-3915
的权力	-3916
的真相	-3917
竟然是	-3918
罗龙文	-3919
老天爷	-3920
赶到了	-3921
这二位	-3922
进一步	-3923
露出了	-3924
面对着	-3925
高拱的	-3926
▁如果你	-3927
▁温体仁	-3928
伯颜帖木	-3929
到了极点	-3930
可以肯定	-3931
实在不是	-3932
就在此时	-3933
得到消息	-3934
怎么回事	-3935
放在眼里	-3936
经过仔细	-3937
自己已经	-3938
发生的事情	-3939
▁也	-3940
一代	-3941
三万	-3942
上奏	-3943
临时	-3944
主角	-3945
二月	-3946
亲手	-3947
从容	-3948
傅友	-3949
充足	-3950
光了	-3951
八日	-3952
决策	-3953
几千	-3954
出门	-3955
前后	-3956
发出	-3957
发达	-3958
口水	-3959
只得	-3960
向来	-3961
呆在	-3962
嘉胤	-3963
四书	-3964
四品	-3965
复仇	-3966
大侠	-3967
大功	-3968
就该	-3969
屈服	-3970
序幕	-3971
异常	-3972
得以	-3973
总之	-3974
感谢	-3975
战舰	-3976
才子	-3977
打工	-3978
打破	-3979
接班	-3980
搞笑	-3981
攻下	-3982
整天	-3983
斗殴	-3984
无愧	-3985
无计	-3986
日常	-3987
有余	-3988
有名	-3989
朝贡	-3990
此案	-3991
气愤	-3992
法律	-3993
激烈	-3994
火药	-3995
相关	-3996
精英	-3997
而起	-3998
聂豹	-3999
聊天	-4000
舞台	-4001
行军	-4002
街头	-4003
训斥	-4004
贡献	-4005
贪官	-4006
身后	-4007
这套	-4008
这片	-4009
错的	-4010
防御	-4011
集中	-4012
齐泰	-4013
5),	-4014
▁一年	-4015
▁明代	-4016
▁此人	-4017
不出来	-4018
不得已	-4019
不过去	-4020
也不想	-4021
也不要	-4022
什么都	-4023
他一生	-4024
他一直	-4025
他依然	-4026
他就是	-4027
倒也不	-4028
做到了	-4029
傅友德	-4030
儿子的	-4031
前所未	-4032
剩下的	-4033
唐伯虎	-4034
在那个	-4035
大部分	-4036
小时候	-4037
就不用	-4038
年轻人	-4039
必须要	-4040
我相信	-4041
指挥使	-4042
掌握了	-4043
有理由	-4044
正常的	-4045
没有了	-4046
王世贞	-4047
的奏疏	-4048
的对手	-4049
的攻击	-4050
的目标	-4051
的骑兵	-4052
相当的	-4053
瞧不起	-4054
给自己	-4055
起义军	-4056
还乡团	-4057
还是个	-4058
那个人	-4059
都不敢	-4060
错误的	-4061
顾大章	-4062
▁孙承宗	-4063
一样东西	-4064
万历四十	-4065
也没办法	-4066
他的名字	-4067
内阁大臣	-4068
几十年的	-4069
到此为止	-4070
想干什么	-4071
无计可施	-4072
朱厚照的	-4073
朱祁镇的	-4074
李如松的	-4075
没办法了	-4076
等待着他	-4077
终究还是	-4078
说明的是	-4079
这个孩子	-4080
这个消息	-4081
▁嘉靖三十	-4082
▁总而言之	-4083
▁无论如何	-4084
到这个地步	-4085
▁五	-4086
上报	-4087
下水	-4088
不做	-4089
不准	-4090
不明	-4091
不禁	-4092
不计	-4093
专业	-4094
为之	-4095
也曾	-4096
乡试	-4097
争议	-4098
争论	-4099
于此	-4100
人头	-4101
他了	-4102
伍文	-4103
体系	-4104
僵持	-4105
兄台	-4106
军官	-4107
勾结	-4108
十六	-4109
反常	-4110
发财	-4111
名为	-4112
吹牛	-4113
喜悦	-4114
四日	-4115
在晋	-4116
处死	-4117
夜里	-4118
大夫	-4119
天真	-4120
奇瑜	-4121
实施	-4122
对着	-4123
就去	-4124
山区	-4125
崇古	-4126
帮手	-4127
并无	-4128
应付	-4129
应嘉	-4130
录取	-4131
心思	-4132
忘了	-4133
忠诚	-4134
战中	-4135
所修	-4136
抚顺	-4137
报国	-4138
推举	-4139
文灿	-4140
时的	-4141
明神	-4142
是大	-4143
是最	-4144
更多	-4145
有加	-4146
有过	-4147
朝军	-4148
材料	-4149
杭州	-4150
样子	-4151
武艺	-4152
残忍	-4153
汇报	-4154
没啥	-4155
派兵	-4156
点头	-4157
牢里	-4158
犯了	-4159
狡诈	-4160
王京	-4161
白天	-4162
眼中	-4163
窝囊	-4164
系统	-4165
给钱	-4166
统领	-4167
翻译	-4168
考核	-4169
胆子	-4170
表扬	-4171
见识	-4172
讲述	-4173
语言	-4174
误会	-4175
轮到	-4176
辩论	-4177
还真	-4178
送礼	-4179
鄱阳	-4180
8),	-4181
▁正是	-4182
一定是	-4183
不知是	-4184
了一句	-4185
了一把	-4186
了一次	-4187
于是在	-4188
他并不	-4189
做皇帝	-4190
出发了	-4191
如果要	-4192
完蛋了	-4193
小王子	-4194
就已经	-4195
德胜门	-4196
有一点	-4197
李时珍	-4198
熊文灿	-4199
王司令	-4200
的最高	-4201
的背后	-4202
老老实	-4203
胜利的	-4204
胡应嘉	-4205
自然要	-4206
还不错	-4207
还是很	-4208
鄱阳湖	-4209
陈奇瑜	-4210
顺便说	-4211
▁在明代	-4212
一点也不	-4213
也是一个	-4214
原因在于	-4215
只剩下了	-4216
嘉靖同志	-4217
在历史上	-4218
就此开始	-4219
必死无疑	-4220
恰恰相反	-4221
是不够的	-4222
该怎么办	-4223
▁努尔哈赤	-4224
发动了进攻	-4225
▁天	-4226
》。	-4227
一批	-4228
一来	-4229
上一	-4230
两次	-4231
之上	-4232
之人	-4233
之变	-4234
乔宇	-4235
乾清	-4236
事到	-4237
他会	-4238
伏击	-4239
会有	-4240
你去	-4241
做官	-4242
公司	-4243
再来	-4244
冷静	-4245
出城	-4246
医生	-4247
升任	-4248
单纯	-4249
南方	-4250
反攻	-4251
发布	-4252
各自	-4253
后代	-4254
吸引	-4255
商议	-4256
四周	-4257
地道	-4258
处于	-4259
多岁	-4260
大殿	-4261
头目	-4262
夸奖	-4263
安庆	-4264
就死	-4265
尽了	-4266
展开	-4267
平叛	-4268
弟子	-4269
当的	-4270
很是	-4271
志皋	-4272
怒火	-4273
惊天	-4274
意图	-4275
愿望	-4276
批评	-4277
接近	-4278
提议	-4279
数十	-4280
整人	-4281
整整	-4282
文人	-4283
无聊	-4284
早在	-4285
是我	-4286
木匠	-4287
杜松	-4288
检讨	-4289
欣赏	-4290
死前	-4291
死地	-4292
毅然	-4293
每个	-4294
海军	-4295
爆发	-4296
独特	-4297
甘肃	-4298
直觉	-4299
立了	-4300
结党	-4301
缺点	-4302
罢休	-4303
职责	-4304
肚子	-4305
表演	-4306
被抓	-4307
讽刺	-4308
说起	-4309
超级	-4310
跋扈	-4311
身影	-4312
这点	-4313
这边	-4314
连忙	-4315
送到	-4316
送给	-4317
那天	-4318
重地	-4319
长大	-4320
防备	-4321
饿死	-4322
马刀	-4323
高干	-4324
6),	-4325
▁原来	-4326
▁石亨	-4327
▁答案	-4328
三十年	-4329
传到了	-4330
但只要	-4331
到最后	-4332
包围圈	-4333
十六年	-4334
却突然	-4335
告诉你	-4336
回来的	-4337
在明代	-4338
失败了	-4339
就不是	-4340
就是个	-4341
心中的	-4342
放弃了	-4343
有两个	-4344
查大受	-4345
殷士儋	-4346
痛苦的	-4347
的失败	-4348
的那样	-4349
看见了	-4350
篇文章	-4351
老朋友	-4352
跑到了	-4353
还不是	-4354
这辈子	-4355
▁这一天	-4356
一件事情	-4357
不下去了	-4358
与此同时	-4359
了一口气	-4360
他们都是	-4361
他找到了	-4362
国家大事	-4363
差不多了	-4364
希望能够	-4365
文官集团	-4366
用自己的	-4367
也没有什么	-4368
万万没有想到	-4369
一张	-4370
三国	-4371
不详	-4372
不负	-4373
严肃	-4374
主张	-4375
主持	-4376
之徒	-4377
也想	-4378
书的	-4379
事先	-4380
五经	-4381
交锋	-4382
人听	-4383
人质	-4384
使他	-4385
做得	-4386
偶像	-4387
写得	-4388
出面	-4389
制定	-4390
动摇	-4391
却在	-4392
卷子	-4393
原地	-4394
又不	-4395
受了	-4396
变了	-4397
叹息	-4398
否则	-4399
告知	-4400
团结	-4401
在场	-4402
大为	-4403
大批	-4404
大胆	-4405
大门	-4406
天的	-4407
失守	-4408
夺门	-4409
女子	-4410
好汉	-4411
子龙	-4412
宴会	-4413
将在	-4414
小姐	-4415
底下	-4416
当过	-4417
心的	-4418
急得	-4419
想的	-4420
战局	-4421
掌印	-4422
搞定	-4423
效率	-4424
文明	-4425
春芳	-4426
是被	-4427
服从	-4428
期望	-4429
杀头	-4430
杀害	-4431
权势	-4432
杨溥	-4433
气势	-4434
气氛	-4435
滚蛋	-4436
满怀	-4437
疯了	-4438
的手	-4439
盔甲	-4440
直言	-4441
破坏	-4442
立下	-4443
竟敢	-4444
算命	-4445
经营	-4446
老虎	-4447
考中	-4448
苏州	-4449
荣耀	-4450
诡异	-4451
说我	-4452
谁都	-4453
谨慎	-4454
赏赐	-4455
赢了	-4456
赶紧	-4457
过人	-4458
这笔	-4459
迷信	-4460
通州	-4461
通知	-4462
遇上	-4463
那种	-4464
钱宁	-4465
锻炼	-4466
问他	-4467
阻止	-4468
难度	-4469
集体	-4470
鼓舞	-4471
▁从此	-4472
▁只要	-4473
▁徐海	-4474
▁汪直	-4475
▁说来	-4476
三千人	-4477
三法司	-4478
为自己	-4479
也不好	-4480
也确实	-4481
乾清宫	-4482
人听闻	-4483
仅仅是	-4484
他应该	-4485
他是个	-4486
倒不是	-4487
准确的	-4488
到来的	-4489
却并非	-4490
又是一	-4491
四十年	-4492
夏言的	-4493
居庸关	-4494
战争的	-4495
才知道	-4496
拥而上	-4497
明光宗	-4498
是无法	-4499
生命的	-4500
的对象	-4501
的想法	-4502
的故事	-4503
的能力	-4504
的行动	-4505
目前的	-4506
看到的	-4507
神机营	-4508
老实人	-4509
赵志皋	-4510
这两位	-4511
道命令	-4512
▁几天后	-4513
▁所以他	-4514
▁朱宸濠	-4515
不会想到	-4516
十余年的	-4517
嘉靖三十	-4518
嘉靖先生	-4519
四书五经	-4520
总而言之	-4521
毫无疑问	-4522
的官员们	-4523
▁万历四十	-4524
但事实证明	-4525
因为他知道	-4526
是不可能的	-4527
说了一句话	-4528
▁这个人就是	-4529
▁其	-4530
一名	-4531
一惊	-4532
一手	-4533
一提	-4534
不愿	-4535
久经	-4536
之力	-4537
买卖	-4538
事已	-4539
仓库	-4540
付出	-4541
代善	-4542
你死	-4543
列举	-4544
助手	-4545
去的	-4546
县长	-4547
口号	-4548
只用	-4549
君子	-4550
哪怕	-4551
回京	-4552
坚决	-4553
培养	-4554
大象	-4555
大骂	-4556
失了	-4557
奇才	-4558
奋勇	-4559
定边	-4560
实录	-4561
宫殿	-4562
家常	-4563
将其	-4564
就敢	-4565
工具	-4566
带了	-4567
开打	-4568
张忠	-4569
归根	-4570
当成	-4571
心学	-4572
情节	-4573
慌不	-4574
慌了	-4575
我不	-4576
我所	-4577
战功	-4578
所在	-4579
手握	-4580
把手	-4581
抗倭	-4582
拿去	-4583
接任	-4584
提前	-4585
效力	-4586
斩杀	-4587
斩首	-4588
明智	-4589
昨天	-4590
是从	-4591
是由	-4592
曾铣	-4593
有关	-4594
机灵	-4595
来临	-4596
极有	-4597
棺材	-4598
武力	-4599
死里	-4600
沈阳	-4601
洋洋	-4602
清晰	-4603
爱好	-4604
理寺	-4605
监察	-4606
砍了	-4607
砖头	-4608
笼罩	-4609
终将	-4610
终结	-4611
绝无	-4612
缺德	-4613
胡扯	-4614
自幼	-4615
至今	-4616
设想	-4617
请示	-4618
谋略	-4619
财物	-4620
轿子	-4621
过他	-4622
运动	-4623
进军	-4624
迹象	-4625
退却	-4626
送行	-4627
那可	-4628
那边	-4629
鄙视	-4630
陪伴	-4631
骂得	-4632
高的	-4633
黄宗	-4634
▁必须	-4635
▁更为	-4636
▁隆庆	-4637
且不说	-4638
严重的	-4639
也只有	-4640
也无法	-4641
也有着	-4642
了一条	-4643
了口气	-4644
什么事	-4645
他也不	-4646
他们都	-4647
他准备	-4648
伍文定	-4649
但对于	-4650
你怎么	-4651
关进了	-4652
刚开始	-4653
占据了	-4654
却十分	-4655
又没有	-4656
号人物	-4657
听话的	-4658
在日本	-4659
在这种	-4660
士兵的	-4661
帮助下	-4662
并不能	-4663
张四维	-4664
当皇帝	-4665
徐海的	-4666
感觉到	-4667
打屁股	-4668
打破了	-4669
接到了	-4670
无人可	-4671
有一次	-4672
李春芳	-4673
消停了	-4674
牢牢地	-4675
特别的	-4676
的回答	-4677
的心理	-4678
的指挥	-4679
的目光	-4680
的道路	-4681
级人物	-4682
纪姑娘	-4683
被打得	-4684
言官们	-4685
过了一	-4686
迎来了	-4687
还活着	-4688
(154	-4689
▁所以在	-4690
▁杨一清	-4691
▁申时行	-4692
一时之间	-4693
万历同志	-4694
内阁成员	-4695
大吃一惊	-4696
实在是不	-4697
竟然如此	-4698
除此之外	-4699
并不是一个	-4700
眼前的这个	-4701
”、	-4702
一夜	-4703
一头	-4704
一挥	-4705
一无	-4706
万安	-4707
上岸	-4708
两千	-4709
个别	-4710
乐观	-4711
也已	-4712
乱了	-4713
亲人	-4714
仆人	-4715
他爹	-4716
做事	-4717
先是	-4718
免职	-4719
公道	-4720
共有	-4721
兵权	-4722
出事	-4723
出名	-4724
刑场	-4725
到的	-4726
功名	-4727
加入	-4728
劳动	-4729
匪夷	-4730
占领	-4731
压制	-4732
县城	-4733
古代	-4734
可靠	-4735
名人	-4736
和王	-4737
哥们	-4738
商辂	-4739
善战	-4740
四万	-4741
四人	-4742
四散	-4743
四百	-4744
国泰	-4745
地对	-4746
大刀	-4747
太祖	-4748
奋战	-4749
嫌疑	-4750
守护	-4751
小兵	-4752
帽子	-4753
引起	-4754
当众	-4755
当兵	-4756
必有	-4757
忠臣	-4758
我曾	-4759
我活	-4760
所思	-4761
打探	-4762
搞了	-4763
搭理	-4764
正面	-4765
武林	-4766
气节	-4767
永不	-4768
汉军	-4769
清廉	-4770
滁州	-4771
狠毒	-4772
痛斥	-4773
的恶	-4774
的神	-4775
皇子	-4776
眼光	-4777
社稷	-4778
种地	-4779
童年	-4780
第四	-4781
精通	-4782
紧要	-4783
级的	-4784
纪念	-4785
纯粹	-4786
结底	-4787
给予	-4788
而逃	-4789
能量	-4790
自打	-4791
致命	-4792
营帐	-4793
行李	-4794
要做	-4795
要把	-4796
记住	-4797
诸侯	-4798
调集	-4799
谜团	-4800
财富	-4801
起点	-4802
起码	-4803
跑得	-4804
转变	-4805
边境	-4806
进犯	-4807
途中	-4808
闯王	-4809
闻名	-4810
阵亡	-4811
面孔	-4812
领袖	-4813
饭碗	-4814
黄道	-4815
默默	-4816
▁事实	-4817
▁什么	-4818
▁到了	-4819
▁历史	-4820
▁听到	-4821
▁鉴于	-4822
一个字	-4823
中最为	-4824
之间的	-4825
他还有	-4826
付出了	-4827
似乎是	-4828
依然是	-4829
到哪里	-4830
动手了	-4831
十九年	-4832
叫来了	-4833
同一个	-4834
在他们	-4835
地走了	-4836
大人物	-4837
大规模	-4838
失败的	-4839
年间的	-4840
惊呆了	-4841
无名小	-4842
李如柏	-4843
杨先生	-4844
段时间	-4845
注视着	-4846
混饭吃	-4847
王嘉胤	-4848
王家屏	-4849
环境中	-4850
的声音	-4851
的真实	-4852
的路上	-4853
的身份	-4854
的进攻	-4855
继承人	-4856
胡总督	-4857
自己是	-4858
让我们	-4859
说了算	-4860
过程中	-4861
还可以	-4862
道理的	-4863
黄宗羲	-4864
(141	-4865
▁严世蕃	-4866
▁这是个	-4867
上书弹劾	-4868
东林党人	-4869
之类的话	-4870
二十六年	-4871
他的朋友	-4872
他老人家	-4873
兵部侍郎	-4874
匪夷所思	-4875
另一个是	-4876
因为这个	-4877
对自己的	-4878
并不重要	-4879
并非如此	-4880
归根结底	-4881
我们可以	-4882
所有人的	-4883
掌印太监	-4884
没有丝毫	-4885
的意思是	-4886
越来越大	-4887
这个机会	-4888
自己的儿子	-4889
▁据	-4890
▁被	-4891
一本	-4892
一死	-4893
下定	-4894
不经	-4895
严密	-4896
个把	-4897
了你	-4898
五万	-4899
交道	-4900
亮祖	-4901
以此	-4902
传到	-4903
但也	-4904
侮辱	-4905
全歼	-4906
关内	-4907
内外	-4908
写下	-4909
决断	-4910
劝降	-4911
加强	-4912
十七	-4913
南宫	-4914
却被	-4915
参政	-4916
反映	-4917
只会	-4918
史册	-4919
叶赫	-4920
各部	-4921
合同	-4922
名副	-4923
周顺	-4924
喝酒	-4925
坐牢	-4926
坐着	-4927
垮了	-4928
处决	-4929
大有	-4930
好像	-4931
好奇	-4932
守卫	-4933
安置	-4934
宋濂	-4935
就像	-4936
巡视	-4937
已是	-4938
布政	-4939
当上	-4940
当政	-4941
忙着	-4942
恐怕	-4943
恐怖	-4944
惊喜	-4945
手无	-4946
打架	-4947
打的	-4948
执政	-4949
承受	-4950
指导	-4951
挑战	-4952
挨了	-4953
挽回	-4954
摊子	-4955
收钱	-4956
整理	-4957
无声	-4958
无敌	-4959
服务	-4960
朝堂	-4961
权利	-4962
杆子	-4963
来回	-4964
死于	-4965
死在	-4966
每日	-4967
流放	-4968
浙党	-4969
清了	-4970
爵位	-4971
王直	-4972
电影	-4973
疑惑	-4974
直隶	-4975
眼见	-4976
稳固	-4977
立功	-4978
缺乏	-4979
翠翘	-4980
荣华	-4981
西洋	-4982
要人	-4983
诞生	-4984
语气	-4985
请求	-4986
调查	-4987
财宝	-4988
足足	-4989
跟你	-4990
身为	-4991
输了	-4992
边关	-4993
辽阳	-4994
近乎	-4995
远的	-4996
适合	-4997
透了	-4998
郭桓	-4999
重任	-5000
长矛	-5001
限制	-5002
革命	-5003
顺之	-5004
顺眼	-5005
马的	-5006
骂了	-5007
!”(	-5008
)!”	-5009
▁一天	-5010
▁之前	-5011
▁毕竟	-5012
▁这就	-5013
三年后	-5014
下一步	-5015
下去了	-5016
不得不	-5017
中国人	-5018
从这里	-5019
以他的	-5020
任命为	-5021
但这个	-5022
但这次	-5023
你自己	-5024
元朝的	-5025
充分的	-5026
内阁的	-5027
写下了	-5028
史书上	-5029
司令员	-5030
周顺昌	-5031
和稀泥	-5032
在一起	-5033
大理寺	-5034
大致是	-5035
太子党	-5036
就不多	-5037
崇祯的	-5038
希望他	-5039
必定会	-5040
我已经	-5041
才刚刚	-5042
是十分	-5043
甚至连	-5044
的主力	-5045
的地点	-5046
的眼光	-5047
的老头	-5048
看着他	-5049
经常会	-5050
老狐狸	-5051
谁也不	-5052
过日子	-5053
还不如	-5054
遇见了	-5055
(153	-5056
▁卢象升	-5057
▁朱允炆	-5058
▁朱瞻基	-5059
▁朱重八	-5060
▁然而他	-5061
▁第一个	-5062
一拥而上	-5063
下定决心	-5064
不起眼的	-5065
也就罢了	-5066
事到如今	-5067
事已至此	-5068
他们已经	-5069
名副其实	-5070
在自己的	-5071
很多人的	-5072
无名小卒	-5073
相比而言	-5074
真可谓是	-5075
终于可以	-5076
经验丰富	-5077
表现出了	-5078
表示愿意	-5079
表示自己	-5080
还是比较	-5081
这种事情	-5082
高级官员	-5083
▁关键时刻	-5084
▁在我看来	-5085
▁自古以来	-5086
但问题在于	-5087
才是真正的	-5088
一口	-5089
一块	-5090
万分	-5091
三杨	-5092
上司	-5093
不听	-5094
不花	-5095
中最	-5096
临走	-5097
举行	-5098
之日	-5099
事务	-5100
交通	-5101
但当	-5102
余年	-5103
傻子	-5104
兀良	-5105
元的	-5106
元顺	-5107
入狱	-5108
公平	-5109
公认	-5110
凌迟	-5111
出狱	-5112
副将	-5113
力气	-5114
北城	-5115
危机	-5116
却只	-5117
反了	-5118
只怕	-5119
召开	-5120
名分	-5121
哆嗦	-5122
地下	-5123
城楼	-5124
声中	-5125
多大	-5126
大漠	-5127
天上	-5128
天祥	-5129
失踪	-5130
失里	-5131
实的	-5132
宣传	-5133
家乡	-5134
射箭	-5135
小官	-5136
尔泰	-5137
尚方	-5138
就往	-5139
尽的	-5140
布阵	-5141
带来	-5142
年代	-5143
广东	-5144
废物	-5145
很能	-5146
得不	-5147
得出	-5148
心头	-5149
心眼	-5150
心隐	-5151
怒吼	-5152
悲哀	-5153
情形	-5154
惟忠	-5155
想想	-5156
慷慨	-5157
我想	-5158
我来	-5159
打发	-5160
打小	-5161
拨人	-5162
拿钱	-5163
提升	-5164
携带	-5165
收到	-5166
无意	-5167
日期	-5168
时局	-5169
是没	-5170
显赫	-5171
有不	-5172
朱赓	-5173
杀伤	-5174
杀戮	-5175
权的	-5176
来历	-5177
架势	-5178
横扫	-5179
沈鲤	-5180
油条	-5181
渐渐	-5182
游牧	-5183
独自	-5184
猛攻	-5185
玩的	-5186
班师	-5187
疯狂	-5188
百战	-5189
的前	-5190
确切	-5191
科学	-5192
突袭	-5193
管辖	-5194
罪行	-5195
胆小	-5196
脑海	-5197
苦读	-5198
英明	-5199
被迫	-5200
解放	-5201
说你	-5202
说到	-5203
谢迁	-5204
资源	-5205
走的	-5206
赶来	-5207
身负	-5208
违背	-5209
追着	-5210
送了	-5211
道行	-5212
那帮	-5213
门外	-5214
阻拦	-5215
阻挡	-5216
非同	-5217
风头	-5218
黑手	-5219
▁——	-5220
▁在他	-5221
▁没有	-5222
▁自从	-5223
▁话说	-5224
▁这么	-5225
三个月	-5226
不下去	-5227
不起眼	-5228
中的一	-5229
也是有	-5230
五万人	-5231
产生了	-5232
介绍过	-5233
使用的	-5234
倭寇们	-5235
兀良哈	-5236
元顺帝	-5237
八月十	-5238
北京城	-5239
却只是	-5240
却有着	-5241
反正是	-5242
另一种	-5243
只要你	-5244
同样的	-5245
四个人	-5246
在明朝	-5247
在这次	-5248
如此之	-5249
存在的	-5250
对这位	-5251
小西飞	-5252
就在于	-5253
工作的	-5254
开玩笑	-5255
当兵的	-5256
很高兴	-5257
怎么能	-5258
总不能	-5259
打开了	-5260
文天祥	-5261
既不是	-5262
明神宗	-5263
普通人	-5264
有没有	-5265
来得及	-5266
然后他	-5267
王崇古	-5268
用他的	-5269
的人才	-5270
的人数	-5271
的人都	-5272
的变化	-5273
的女人	-5274
的时代	-5275
的阴谋	-5276
等到了	-5277
绝不能	-5278
背黑锅	-5279
这下子	-5280
这条路	-5281
这种人	-5282
附近的	-5283
雅失里	-5284
马文升	-5285
(144	-5286
(161	-5287
▁朱厚熜	-5288
▁杨士奇	-5289
▁面对着	-5290
不但没有	-5291
不堪一击	-5292
二十三年	-5293
你死我活	-5294
佥都御史	-5295
充分说明	-5296
历史上的	-5297
尚方宝剑	-5298
正是这个	-5299
毫不犹豫	-5300
自古以来	-5301
找到了一个	-5302
提出了一个	-5303
的时候到了	-5304
等待着他的	-5305
顺便说一句	-5306
!〗	-5307
▁七	-5308
▁吴	-5309
一副	-5310
一心	-5311
三次	-5312
下次	-5313
不懈	-5314
世袭	-5315
个性	-5316
中华	-5317
为民	-5318
也该	-5319
了事	-5320
事迹	-5321
云梯	-5322
五天	-5323
人士	-5324
他刚	-5325
他本	-5326
令下	-5327
传达	-5328
作出	-5329
作风	-5330
俸禄	-5331
先辈	-5332
共识	-5333
兵书	-5334
养正	-5335
冤枉	-5336
冷酷	-5337
出山	-5338
劝说	-5339
匹马	-5340
十天	-5341
去做	-5342
去见	-5343
参谋	-5344
又能	-5345
发明	-5346
各级	-5347
同一	-5348
名义	-5349
名留	-5350
商人	-5351
回过	-5352
国公	-5353
在乎	-5354
在我	-5355
场面	-5356
坚强	-5357
处分	-5358
大惊	-5359
大意	-5360
大战	-5361
天文	-5362
天理	-5363
奥妙	-5364
委屈	-5365
威望	-5366
学者	-5367
守城	-5368
安静	-5369
官方	-5370
密信	-5371
尽杀	-5372
工部	-5373
已无	-5374
幸免	-5375
庆祝	-5376
弘治	-5377
张三	-5378
弱的	-5379
当之	-5380
当作	-5381
彭泽	-5382
徐经	-5383
志向	-5384
念头	-5385
成熟	-5386
我往	-5387
战国	-5388
打不	-5389
投靠	-5390
抛弃	-5391
拿到	-5392
挥舞	-5393
排在	-5394
提督	-5395
摆在	-5396
旁观	-5397
无私	-5398
日的	-5399
暗中	-5400
有云	-5401
朝的	-5402
杀手	-5403
权威	-5404
杨洪	-5405
梁海	-5406
此前	-5407
此处	-5408
死罪	-5409
沙漠	-5410
活活	-5411
深知	-5412
温和	-5413
激战	-5414
点钱	-5415
牛人	-5416
狮子	-5417
甘心	-5418
用处	-5419
留名	-5420
痛骂	-5421
盟主	-5422
盯着	-5423
真理	-5424
知名	-5425
石头	-5426
磕头	-5427
穿了	-5428
突击	-5429
等他	-5430
纪录	-5431
细节	-5432
结了	-5433
罢官	-5434
老大	-5435
考上	-5436
考题	-5437
脱脱	-5438
腐败	-5439
艺术	-5440
莽古	-5441
落地	-5442
落榜	-5443
蓟州	-5444
行贿	-5445
被围	-5446
要打	-5447
计算	-5448
谁敢	-5449
财政	-5450
起眼	-5451
踪影	-5452
躲在	-5453
转悠	-5454
迎战	-5455
运输	-5456
这群	-5457
迟迟	-5458
郭登	-5459
铁券	-5460
间谍	-5461
闹得	-5462
隐忍	-5463
顺天	-5464
领悟	-5465
骨头	-5466
”、“	-5467
▁徐达	-5468
▁王振	-5469
▁真是	-5470
▁眼看	-5471
三十六	-5472
下来了	-5473
不了了	-5474
不说话	-5475
书呆子	-5476
他不是	-5477
他也是	-5478
但如果	-5479
何心隐	-5480
你就是	-5481
做好了	-5482
别人的	-5483
十八年	-5484
即使是	-5485
在城外	-5486
在朝廷	-5487
大明的	-5488
将成为	-5489
崩溃了	-5490
并不多	-5491
当时就	-5492
形成了	-5493
得罪了	-5494
必然会	-5495
忍无可	-5496
我没有	-5497
把事情	-5498
拍马屁	-5499
无能为	-5500
日本的	-5501
明白人	-5502
更让人	-5503
未来的	-5504
朱亮祖	-5505
李太后	-5506
环境下	-5507
的一位	-5508
的一次	-5509
的世界	-5510
的人选	-5511
的力量	-5512
的孩子	-5513
的战斗	-5514
的这一	-5515
的这个	-5516
短暂的	-5517
突破口	-5518
第一名	-5519
而是一	-5520
而这个	-5521
踏上了	-5522
还不算	-5523
这都是	-5524
邓子龙	-5525
静静地	-5526
▁就这么	-5527
▁接下来	-5528
▁朱高炽	-5529
▁杨继盛	-5530
▁王锡爵	-5531
也是如此	-5532
人生中的	-5533
他的一生	-5534
以往一样	-5535
充分发挥	-5536
册立太子	-5537
发动攻击	-5538
大致如此	-5539
封建社会	-5540
崇祯同志	-5541
忍无可忍	-5542
想来想去	-5543
我们之前	-5544
把自己的	-5545
朱高煦的	-5546
海瑞先生	-5547
消息传来	-5548
的那个人	-5549
知识分子	-5550
站了起来	-5551
终于发现	-5552
莽古尔泰	-5553
还有很多	-5554
进入内阁	-5555
都察院右	-5556
▁这件事情	-5557
他十分清楚	-5558
伯颜帖木尔	-5559
前所未有的	-5560
朱厚照先生	-5561
杨廷和先生	-5562
在这个世界上	-5563
▁二	-5564
▁六	-5565
▁再	-5566
▁没	-5567
▁看	-5568
▁谁	-5569
一丝	-5570
一幕	-5571
一阵	-5572
三王	-5573
下岗	-5574
下有	-5575
专用	-5576
严格	-5577
为难	-5578
义乌	-5579
义务	-5580
于仁	-5581
享受	-5582
亲属	-5583
仅此	-5584
他便	-5585
他家	-5586
他虽	-5587
何人	-5588
作对	-5589
你想	-5590
你还	-5591
八股	-5592
关心	-5593
凌河	-5594
几万	-5595
出阁	-5596
出马	-5597
击破	-5598
列队	-5599
前任	-5600
功绩	-5601
去向	-5602
去打	-5603
取了	-5604
只在	-5605
台州	-5606
吃亏	-5607
吃好	-5608
合计	-5609
同乡	-5610
同年	-5611
同情	-5612
名不	-5613
后退	-5614
哈铭	-5615
唾沫	-5616
四起	-5617
团团	-5618
地向	-5619
地图	-5620
地理	-5621
坎坷	-5622
境界	-5623
外出	-5624
大喊	-5625
失措	-5626
头衔	-5627
好戏	-5628
姓名	-5629
学历	-5630
审案	-5631
寂静	-5632
就用	-5633
尴尬	-5634
屠刀	-5635
干点	-5636
并封	-5637
度过	-5638
开创	-5639
形式	-5640
得的	-5641
心腹	-5642
恶心	-5643
想出	-5644
惶惶	-5645
感慨	-5646
成法	-5647
成龙	-5648
我会	-5649
我去	-5650
才学	-5651
才算	-5652
打个	-5653
执着	-5654
拉开	-5655
招抚	-5656
拿起	-5657
挑衅	-5658
授予	-5659
攻陷	-5660
救援	-5661
教导	-5662
文中	-5663
文字	-5664
文臣	-5665
斥责	-5666
方针	-5667
无力	-5668
无忌	-5669
无须	-5670
早上	-5671
早有	-5672
早点	-5673
时务	-5674
最有	-5675
有两	-5676
期间	-5677
杀敌	-5678
某个	-5679
某某	-5680
欢迎	-5681
欣慰	-5682
毁灭	-5683
求情	-5684
沿海	-5685
活了	-5686
流水	-5687
湖北	-5688
溃败	-5689
灵活	-5690
炮弹	-5691
照顾	-5692
王华	-5693
现代	-5694
痛恨	-5695
的最	-5696
监派	-5697
监视	-5698
相貌	-5699
矛头	-5700
知晓	-5701
知的	-5702
祖先	-5703
祖坟	-5704
票拟	-5705
私下	-5706
突出	-5707
紫金	-5708
经典	-5709
结构	-5710
绝技	-5711
能干	-5712
脑子	-5713
苦心	-5714
落水	-5715
蔚山	-5716
行进	-5717
被封	-5718
西厂	-5719
西苑	-5720
要钱	-5721
见的	-5722
赋税	-5723
跪在	-5724
进展	-5725
逃窜	-5726
通常	-5727
释放	-5728
重大	-5729
重量	-5730
镇江	-5731
问道	-5732
防止	-5733
阴影	-5734
随身	-5735
风声	-5736
鼓励	-5737
▁对此	-5738
▁徐渭	-5739
▁这封	-5740
上了一	-5741
不了的	-5742
之战中	-5743
了不得	-5744
了点头	-5745
二十一	-5746
于死地	-5747
他们也	-5748
他们就	-5749
他突然	-5750
优秀的	-5751
但他却	-5752
但现在	-5753
保住了	-5754
保持了	-5755
其他的	-5756
几千人	-5757
十七年	-5758
即使在	-5759
却似乎	-5760
却毫无	-5761
去世了	-5762
可不是	-5763
右侍郎	-5764
名单上	-5765
唐顺之	-5766
回去了	-5767
因为这	-5768
好皇帝	-5769
孙老师	-5770
对这个	-5771
就好比	-5772
尽杀绝	-5773
巧的是	-5774
已经不	-5775
幸的是	-5776
建立了	-5777
开始的	-5778
彻底的	-5779
微不足	-5780
必须先	-5781
所说的	-5782
打不过	-5783
打仗的	-5784
摸不着	-5785
是很有	-5786
杨所修	-5787
杨涟的	-5788
柳成龙	-5789
汪老板	-5790
没多久	-5791
用一种	-5792
电视剧	-5793
的严嵩	-5794
的亲信	-5795
的倭寇	-5796
的唯一	-5797
的实力	-5798
的眼睛	-5799
着一个	-5800
程度上	-5801
等来了	-5802
老油条	-5803
自己去	-5804
虽然是	-5805
说话了	-5806
说起来	-5807
费尽心	-5808
还有人	-5809
这一步	-5810
这只是	-5811
这种事	-5812
送上去	-5813
遇上了	-5814
郑国泰	-5815
雒于仁	-5816
非但不	-5817
骂人的	-5818
(138	-5819
▁我相信	-5820
▁所以当	-5821
▁毛文龙	-5822
一般都是	-5823
万历年间	-5824
也没有人	-5825
什么事情	-5826
他自己的	-5827
只不过是	-5828
惊慌失措	-5829
最后一刻	-5830
瓦剌骑兵	-5831
科给事中	-5832
继续前进	-5833
赶尽杀绝	-5834
运气不好	-5835
这位兄台	-5836
锦衣卫的	-5837
魏公公的	-5838
▁相对而言	-5839
也没有想到	-5840
事情的发展	-5841
这个人就是	-5842
▁◎	-5843
▁三	-5844
▁以	-5845
▁高	-5846
一出	-5847
一旁	-5848
一根	-5849
三品	-5850
三大	-5851
不保	-5852
不像	-5853
与之	-5854
东宫	-5855
为其	-5856
久之	-5857
久而	-5858
之乱	-5859
之言	-5860
九日	-5861
书中	-5862
了大	-5863
于心	-5864
交待	-5865
人口	-5866
人品	-5867
从头	-5868
他最	-5869
你也	-5870
依旧	-5871
元化	-5872
光芒	-5873
入朝	-5874
六品	-5875
关头	-5876
关进	-5877
兼程	-5878
分兵	-5879
刚到	-5880
办理	-5881
务必	-5882
勤奋	-5883
十足	-5884
千户	-5885
南宋	-5886
又有	-5887
发泄	-5888
只为	-5889
吃过	-5890
各个	-5891
合法	-5892
后勤	-5893
含义	-5894
咬牙	-5895
咱们	-5896
品行	-5897
围住	-5898
固守	-5899
地球	-5900
坏了	-5901
多尔	-5902
大不	-5903
大名	-5904
大哭	-5905
大好	-5906
夺情	-5907
奔逃	-5908
孤军	-5909
家人	-5910
密谋	-5911
寺庙	-5912
封号	-5913
将会	-5914
差距	-5915
常理	-5916
幽默	-5917
废除	-5918
开刀	-5919
彪悍	-5920
得好	-5921
心底	-5922
忠实	-5923
快马	-5924
怀着	-5925
恶劣	-5926
惨败	-5927
惹事	-5928
才有	-5929
扯淡	-5930
找他	-5931
拷打	-5932
指令	-5933
挽狂	-5934
排除	-5935
提醒	-5936
摆脱	-5937
收获	-5938
放松	-5939
敌情	-5940
整治	-5941
旗舰	-5942
无情	-5943
无需	-5944
明日	-5945
是为	-5946
是非	-5947
最强	-5948
木偶	-5949
未经	-5950
杀的	-5951
正月	-5952
死磕	-5953
江苏	-5954
沉思	-5955
海上	-5956
深厚	-5957
滑头	-5958
灾荒	-5959
炼丹	-5960
熟人	-5961
猛烈	-5962
生产	-5963
用兵	-5964
的他	-5965
直至	-5966
石彪	-5967
砍人	-5968
磨砺	-5969
神的	-5970
祠堂	-5971
竞争	-5972
等一	-5973
等闲	-5974
管他	-5975
精心	-5976
纪律	-5977
结实	-5978
绝境	-5979
继任	-5980
维护	-5981
翻身	-5982
考场	-5983
考生	-5984
而今	-5985
胡说	-5986
胸怀	-5987
脱离	-5988
芝麻	-5989
表情	-5990
要他	-5991
要让	-5992
覆灭	-5993
言辞	-5994
谋士	-5995
谦虚	-5996
赞成	-5997
走上	-5998
走出	-5999
起身	-6000
越多	-6001
越大	-6002
路的	-6003
辜负	-6004
过节	-6005
违反	-6006
适应	-6007
选司	-6008
遗诏	-6009
重兵	-6010
铁岭	-6011
门生	-6012
问候	-6013
阴险	-6014
靠山	-6015
驻扎	-6016
骄傲	-6017
高明	-6018
▁其次	-6019
▁后来	-6020
▁此战	-6021
▁这场	-6022
一口气	-6023
不再是	-6024
不怎么	-6025
也没啥	-6026
从一品	-6027
从某种	-6028
他发现	-6029
众人的	-6030
其他人	-6031
出场了	-6032
到今天	-6033
十万人	-6034
十分之	-6035
只不过	-6036
可能性	-6037
后不久	-6038
向朝廷	-6039
和皇帝	-6040
在这些	-6041
地告诉	-6042
多尔衮	-6043
孙元化	-6044
对他们	-6045
带来了	-6046
很容易	-6047
怎么干	-6048
惊天动	-6049
慌不忙	-6050
我认为	-6051
抓起来	-6052
挽狂澜	-6053
掉脑袋	-6054
放心了	-6055
更不用	-6056
更好的	-6057
有时候	-6058
有这样	-6059
此之后	-6060
死亡的	-6061
毛总兵	-6062
然而他	-6063
王之寀	-6064
王在晋	-6065
王振的	-6066
瓦剌军	-6067
的一种	-6068
的人也	-6069
的勇气	-6070
的开始	-6071
的真正	-6072
的答复	-6073
的那天	-6074
的面前	-6075
等人的	-6076
老头子	-6077
而且还	-6078
而朱棣	-6079
而这位	-6080
自然会	-6081
良好的	-6082
超出了	-6083
跑不掉	-6084
这一幕	-6085
这么大	-6086
这本书	-6087
那都是	-6088
露梁海	-6089
领导的	-6090
(137	-6091
▁在这场	-6092
▁大臣们	-6093
▁曹文诏	-6094
▁杨廷和	-6095
▁洪承畴	-6096
万没想到	-6097
三王并封	-6098
不堪设想	-6099
不是什么	-6100
久而久之	-6101
也想不到	-6102
了一句话	-6103
二十二年	-6104
你来我往	-6105
四散奔逃	-6106
大喝一声	-6107
大多数人	-6108
实在是太	-6109
就在眼前	-6110
已经死了	-6111
很有可能	-6112
无可奈何	-6113
无能为力	-6114
是一个很	-6115
曾经说过	-6116
最强大的	-6117
本雅失里	-6118
每一个人	-6119
狼狈不堪	-6120
终于明白	-6121
而是一个	-6122
蒙古军队	-6123
行动证明	-6124
这么大的	-6125
都给事中	-6126
黄金家族	-6127
▁一直以来	-6128
▁换句话说	-6129
不知道的是	-6130
到底是什么	-6131
得到了一个	-6132
才刚刚开始	-6133
是一个十分	-6134
有理由相信	-6135
确实是一个	-6136
老老实实地	-6137
可以肯定的是	-6138
▁先	-6139
▁真	-6140
一团	-6141
一眼	-6142
一股	-6143
三分	-6144
上都	-6145
下午	-6146
下台	-6147
不倒	-6148
主将	-6149
买通	-6150
二甲	-6151
五岁	-6152
交战	-6153
亲率	-6154
人类	-6155
众望	-6156
会师	-6157
伪装	-6158
位高	-6159
体会	-6160
何处	-6161
何必	-6162
侥幸	-6163
假的	-6164
做过	-6165
兑现	-6166
公然	-6167
兵败	-6168
冒险	-6169
写信	-6170
冲入	-6171
决不	-6172
出使	-6173
出差	-6174
出自	-6175
别无	-6176
前景	-6177
剩下	-6178
势头	-6179
化淳	-6180
半路	-6181
危局	-6182
历时	-6183
发抖	-6184
发话	-6185
口供	-6186
古人	-6187
只管	-6188
台词	-6189
史上	-6190
吃喝	-6191
后路	-6192
回应	-6193
围城	-6194
图谋	-6195
垃圾	-6196
埋头	-6197
声色	-6198
处事	-6199
大字	-6200
大学	-6201
大小	-6202
大风	-6203
太原	-6204
如无	-6205
威力	-6206
孙德	-6207
孤身	-6208
宰相	-6209
家中	-6210
就走	-6211
岛上	-6212
差事	-6213
已定	-6214
布置	-6215
帝王	-6216
广泛	-6217
应龙	-6218
废了	-6219
开炮	-6220
当天	-6221
很长	-6222
性和	-6223
怪事	-6224
总得	-6225
恼火	-6226
悄悄	-6227
我说	-6228
截然	-6229
打倒	-6230
打劫	-6231
打完	-6232
把柄	-6233
抓了	-6234
抱着	-6235
拉拢	-6236
持续	-6237
指责	-6238
推辞	-6239
掩护	-6240
搞个	-6241
摇头	-6242
操纵	-6243
既不	-6244
有利	-6245
本事	-6246
杀气	-6247
极高	-6248
林儿	-6249
架子	-6250
校长	-6251
案子	-6252
死刑	-6253
殿试	-6254
江南	-6255
流的	-6256
混碗	-6257
演义	-6258
点燃	-6259
生猛	-6260
的信	-6261
看懂	-6262
管事	-6263
系列	-6264
组成	-6265
结案	-6266
绝了	-6267
缺少	-6268
群体	-6269
考证	-6270
胆大	-6271
自若	-6272
航海	-6273
良久	-6274
良好	-6275
良心	-6276
袁凯	-6277
被赶	-6278
说要	-6279
诸葛	-6280
财产	-6281
质量	-6282
贩子	-6283
走去	-6284
走向	-6285
躲避	-6286
辩解	-6287
过望	-6288
还好	-6289
这张	-6290
这话	-6291
选手	-6292
遵守	-6293
那句	-6294
重伤	-6295
阿台	-6296
非要	-6297
题目	-6298
风暴	-6299
饱读	-6300
黑田	-6301
▁不管	-6302
▁但要	-6303
▁双方	-6304
▁好了	-6305
▁明朝	-6306
▁李贤	-6307
▁海瑞	-6308
▁看来	-6309
▁第三	-6310
▁终于	-6311
▁解缙	-6312
▁郑和	-6313
不上朝	-6314
不同意	-6315
不就是	-6316
不应该	-6317
不愧是	-6318
主义者	-6319
也是人	-6320
了一种	-6321
了不起	-6322
事情就	-6323
二十二	-6324
于他的	-6325
他再次	-6326
他只是	-6327
他始终	-6328
他带着	-6329
他当即	-6330
他率领	-6331
他立即	-6332
他经常	-6333
他随即	-6334
但朱棣	-6335
俞大侠	-6336
停止了	-6337
公务员	-6338
关键的	-6339
凑热闹	-6340
即所谓	-6341
参加了	-6342
只知道	-6343
只能用	-6344
向明朝	-6345
回答道	-6346
在一个	-6347
地表示	-6348
坚定的	-6349
复杂的	-6350
如此的	-6351
孙德崖	-6352
就是他	-6353
已久的	-6354
布政使	-6355
帖木儿	-6356
平凡的	-6357
张大人	-6358
成功了	-6359
我知道	-6360
方法是	-6361
无上的	-6362
无忌惮	-6363
无疑是	-6364
是不太	-6365
是明代	-6366
曹化淳	-6367
有必要	-6368
某些人	-6369
正部级	-6370
清楚地	-6371
王翠翘	-6372
的主人	-6373
的主意	-6374
的势力	-6375
的反应	-6376
的地步	-6377
的心中	-6378
的斗争	-6379
的母亲	-6380
的评价	-6381
皇太后	-6382
目标是	-6383
知名度	-6384
知道的	-6385
确定了	-6386
立太子	-6387
竟然还	-6388
简单的	-6389
老江湖	-6390
耳朵里	-6391
自然不	-6392
落水狗	-6393
蓝道行	-6394
让他去	-6395
足够的	-6396
这不是	-6397
这个叫	-6398
送到了	-6399
韩林儿	-6400
马皇后	-6401
黄道周	-6402
(136	-6403
(142	-6404
▁在这个	-6405
▁高迎祥	-6406
一个地方	-6407
下了一个	-6408
严世蕃的	-6409
事情已经	-6410
他才发现	-6411
他的母亲	-6412
传说中的	-6413
似乎也不	-6414
但有一点	-6415
但这一次	-6416
做的事情	-6417
关键在于	-6418
副都御史	-6419
北京保卫	-6420
十几万人	-6421
压根就没	-6422
嘉靖二十	-6423
因为根据	-6424
因为这位	-6425
在战场上	-6426
大家都不	-6427
客观地讲	-6428
就成为了	-6429
左都御史	-6430
意识到了	-6431
感受到了	-6432
戚继光的	-6433
日夜兼程	-6434
是个比较	-6435
月二十日	-6436
混碗饭吃	-6437
游牧民族	-6438
的大臣们	-6439
的老百姓	-6440
知道自己	-6441
确实如此	-6442
等等等等	-6443
等闲之辈	-6444
绝对不会	-6445
绝对不能	-6446
耸人听闻	-6447
肆无忌惮	-6448
荣华富贵	-6449
还是一个	-6450
这一点上	-6451
这个地方	-6452
这个故事	-6453
这个计划	-6454
那么容易	-6455
▁这是一次	-6456
之所以能够	-6457
可怕的敌人	-6458
已经成为了	-6459
的名字叫做	-6460
14	-6461
▁除	-6462
一一	-6463
一律	-6464
三卫	-6465
三子	-6466
三桂	-6467
上万	-6468
上到	-6469
不作	-6470
不受	-6471
不解	-6472
不认	-6473
世面	-6474
业务	-6475
两广	-6476
义气	-6477
乌龟	-6478
书院	-6479
亏本	-6480
交谈	-6481
人人	-6482
人等	-6483
今年	-6484
他与	-6485
他先	-6486
他比	-6487
代替	-6488
以示	-6489
优良	-6490
低头	-6491
你会	-6492
便饭	-6493
信中	-6494
信了	-6495
修建	-6496
偶尔	-6497
傻瓜	-6498
免了	-6499
全胜	-6500
公子	-6501
册封	-6502
再去	-6503
冲了	-6504
出卖	-6505
击退	-6506
则是	-6507
到手	-6508
前线	-6509
动物	-6510
包袱	-6511
升了	-6512
历代	-6513
叹气	-6514
各位	-6515
名气	-6516
员外	-6517
周密	-6518
命了	-6519
固定	-6520
城中	-6521
外地	-6522
大可	-6523
大捷	-6524
天朝	-6525
天生	-6526
太久	-6527
失色	-6528
奏报	-6529
奴才	-6530
奸巨	-6531
好友	-6532
安丰	-6533
客人	-6534
宣宗	-6535
家属	-6536
察觉	-6537
对其	-6538
射击	-6539
小时	-6540
尚铭	-6541
就叫	-6542
岗位	-6543
州人	-6544
左桂	-6545
幻想	-6546
张位	-6547
形成	-6548
往下	-6549
征战	-6550
待见	-6551
情景	-6552
惩罚	-6553
成立	-6554
我将	-6555
所部	-6556
扎营	-6557
扬长	-6558
投入	-6559
抬起	-6560
拜访	-6561
拯救	-6562
拿刀	-6563
按时	-6564
掌权	-6565
接触	-6566
推论	-6567
提高	-6568
撤职	-6569
敏政	-6570
旗帜	-6571
无不	-6572
无忧	-6573
时常	-6574
明末	-6575
是以	-6576
最低	-6577
有仇	-6578
机动	-6579
杨元	-6580
极强	-6581
林润	-6582
次辅	-6583
欧阳	-6584
正当	-6585
此书	-6586
武官	-6587
死路	-6588
残暴	-6589
殿下	-6590
水浒	-6591
浪费	-6592
消极	-6593
特产	-6594
状况	-6595
用于	-6596
疑团	-6597
病人	-6598
的长	-6599
目睹	-6600
相识	-6601
相遇	-6602
着急	-6603
神来	-6604
祭祀	-6605
空印	-6606
笑话	-6607
等地	-6608
等的	-6609
算帐	-6610
管的	-6611
粗人	-6612
经略	-6613
绝招	-6614
缓过	-6615
翼翼	-6616
考了	-6617
胜仗	-6618
至元	-6619
船上	-6620
苦头	-6621
茫茫	-6622
获取	-6623
葡萄	-6624
蓟辽	-6625
薛侃	-6626
行业	-6627
表面	-6628
袭击	-6629
西城	-6630
观念	-6631
警告	-6632
警惕	-6633
讲官	-6634
证实	-6635
诗书	-6636
诬陷	-6637
诱惑	-6638
诺言	-6639
谁能	-6640
调兵	-6641
调动	-6642
谋划	-6643
费解	-6644
趁着	-6645
足了	-6646
跪拜	-6647
身经	-6648
辛辛	-6649
边的	-6650
还曾	-6651
这句	-6652
道同	-6653
遗言	-6654
采用	-6655
重视	-6656
长政	-6657
长江	-6658
阿敏	-6659
陆续	-6660
陌生	-6661
韩雍	-6662
马匹	-6663
魏朝	-6664
▁值得	-6665
▁具体	-6666
▁正统	-6667
▁相信	-6668
▁话虽	-6669
▁说起	-6670
▁陆炳	-6671
一群人	-6672
万军队	-6673
不但是	-6674
九月初	-6675
也不过	-6676
也正是	-6677
也没法	-6678
了一名	-6679
交给他	-6680
京城里	-6681
从来不	-6682
他也没	-6683
他们将	-6684
他看着	-6685
他这个	-6686
位高权	-6687
保持着	-6688
典型的	-6689
内阁里	-6690
准备了	-6691
出了事	-6692
出去了	-6693
到后来	-6694
办法的	-6695
十余年	-6696
又不能	-6697
只能靠	-6698
可以说	-6699
史料上	-6700
叶赫部	-6701
向朱棣	-6702
吴三桂	-6703
员外郎	-6704
回家了	-6705
因为我	-6706
基本都	-6707
大将军	-6708
好吃好	-6709
实现了	-6710
就不能	-6711
就发现	-6712
张定边	-6713
得知了	-6714
成功地	-6715
战胜了	-6716
打了个	-6717
打败了	-6718
折腾了	-6719
招待所	-6720
敏锐地	-6721
时间的	-6722
是一位	-6723
是不是	-6724
是有的	-6725
是相当	-6726
有一种	-6727
权力的	-6728
此机会	-6729
烂摊子	-6730
的主角	-6731
的出现	-6732
的努力	-6733
的只有	-6734
的同党	-6735
的大炮	-6736
的手中	-6737
的痛苦	-6738
的眼中	-6739
的粮食	-6740
的老师	-6741
的职务	-6742
目的地	-6743
相同的	-6744
程敏政	-6745
给他们	-6746
老奸巨	-6747
芝麻官	-6748
解决的	-6749
请大家	-6750
诸葛亮	-6751
起来的	-6752
过不去	-6753
过来了	-6754
还需要	-6755
这个词	-6756
这么说	-6757
这些话	-6758
进攻的	-6759
那一天	-6760
那也是	-6761
都已经	-6762
里糊涂	-6763
靠谱的	-6764
顽强的	-6765
▁为什么	-6766
▁张献忠	-6767
万历三十	-6768
三国演义	-6769
不久之前	-6770
不同的是	-6771
仅此而已	-6772
他的对手	-6773
但事实上	-6774
基本都是	-6775
大喜过望	-6776
实在没有	-6777
家常便饭	-6778
小心翼翼	-6779
就不说了	-6780
已经不是	-6781
当之无愧	-6782
扬长而去	-6783
朝鲜国王	-6784
朱元璋在	-6785
的胡宗宪	-6786
说不过去	-6787
辛辛苦苦	-6788
辽东铁骑	-6789
还是有的	-6790
这些人的	-6791
这位皇帝	-6792
这样认为	-6793
这种情况	-6794
进士出身	-6795
遗憾的是	-6796
那么简单	-6797
高干子弟	-6798
麻烦的是	-6799
黑田长政	-6800
▁与此同时	-6801
▁对于这个	-6802
▁相比而言	-6803
之所以如此	-6804
优秀的将领	-6805
关进了监狱	-6806
即将到来的	-6807
大家都知道	-6808
实在是一个	-6809
就不多说了	-6810
并不是什么	-6811
毫不犹豫地	-6812
给了他一个	-6813
)!	-6814
,”	-6815
▁前	-6816
▁想	-6817
▁混	-6818
▁用	-6819
》、	-6820
一脚	-6821
一良	-6822
一见	-6823
七八	-6824
上看	-6825
上述	-6826
不买	-6827
不入	-6828
不轨	-6829
与其	-6830
专家	-6831
业绩	-6832
两大	-6833
之大	-6834
了结	-6835
亲征	-6836
人之	-6837
仁义	-6838
仕途	-6839
他能	-6840
们都	-6841
任职	-6842
伏兵	-6843
会审	-6844
但你	-6845
位于	-6846
保障	-6847
催促	-6848
光彩	-6849
全无	-6850
全靠	-6851
八虎	-6852
六岁	-6853
再起	-6854
写成	-6855
冬天	-6856
冲动	-6857
况且	-6858
凶狠	-6859
出个	-6860
出宫	-6861
出版	-6862
分了	-6863
分成	-6864
匆匆	-6865
北伐	-6866
南迁	-6867
厚黑	-6868
反叛	-6869
发扬	-6870
口中	-6871
吉安	-6872
名言	-6873
后悔	-6874
后派	-6875
吴瑾	-6876
哪天	-6877
四位	-6878
四千	-6879
团伙	-6880
围剿	-6881
围攻	-6882
国书	-6883
在外	-6884
城府	-6885
士卒	-6886
士相	-6887
壮举	-6888
处境	-6889
大呼	-6890
大妈	-6891
大局	-6892
大成	-6893
大笑	-6894
奇人	-6895
奇的	-6896
如雷	-6897
嫡子	-6898
子女	-6899
季驯	-6900
宁可	-6901
安宁	-6902
安抚	-6903
安插	-6904
官服	-6905
实行	-6906
实诚	-6907
宠信	-6908
小孩	-6909
尚在	-6910
就干	-6911
就来	-6912
就看	-6913
展现	-6914
巨大	-6915
师爷	-6916
带上	-6917
帮人	-6918
平衡	-6919
年仅	-6920
广宁	-6921
庆州	-6922
开头	-6923
当前	-6924
往前	-6925
微笑	-6926
心情	-6927
心血	-6928
忽视	-6929
怕死	-6930
怠工	-6931
总算	-6932
总要	-6933
您的	-6934
惨叫	-6935
意气	-6936
感激	-6937
我国	-6938
我已	-6939
所措	-6940
所赐	-6941
才好	-6942
打你	-6943
扩大	-6944
批示	-6945
技巧	-6946
把你	-6947
报信	-6948
报到	-6949
拉住	-6950
招安	-6951
拦住	-6952
拳头	-6953
指头	-6954
换在	-6955
撤回	-6956
整死	-6957
断了	-6958
无处	-6959
无异	-6960
早日	-6961
明年	-6962
是好	-6963
是想	-6964
是的	-6965
更好	-6966
曹操	-6967
最近	-6968
有成	-6969
服气	-6970
期待	-6971
李永	-6972
极具	-6973
极端	-6974
横飞	-6975
比例	-6976
民兵	-6977
民变	-6978
民间	-6979
江浙	-6980
沐英	-6981
泰山	-6982
派了	-6983
满面	-6984
濠州	-6985
烧掉	-6986
牛羊	-6987
猛打	-6988
王朴	-6989
用意	-6990
的下	-6991
的新	-6992
的预	-6993
的高	-6994
皆非	-6995
盘踞	-6996
盟友	-6997
直门	-6998
真诚	-6999
眼睁	-7000
瞬间	-7001
礼貌	-7002
私人	-7003
私盐	-7004
稻草	-7005
空前	-7006
立业	-7007
粮草	-7008
约定	-7009
纸币	-7010
组建	-7011
结交	-7012
美梦	-7013
翻阅	-7014
老太	-7015
老手	-7016
胡广	-7017
脸色	-7018
自豪	-7019
自负	-7020
舆论	-7021
荡荡	-7022
莫非	-7023
藐视	-7024
袖子	-7025
西门	-7026
见人	-7027
解开	-7028
认了	-7029
讨伐	-7030
请你	-7031
贞吉	-7032
败坏	-7033
贴身	-7034
费用	-7035
赏识	-7036
走后	-7037
足够	-7038
转折	-7039
这叫	-7040
这行	-7041
进发	-7042
送信	-7043
通往	-7044
逼近	-7045
道上	-7046
邀请	-7047
都已	-7048
醒悟	-7049
重重	-7050
闲来	-7051
闲逛	-7052
防务	-7053
险要	-7054
隐含	-7055
难免	-7056
青词	-7057
颁布	-7058
高考	-7059
麻痹	-7060
135	-7061
▁不是	-7062
▁刘基	-7063
▁在那	-7064
▁当年	-7065
▁曹钦	-7066
▁果然	-7067
▁结果	-7068
▁这事	-7069
▁这话	-7070
▁麻贵	-7071
一万人	-7072
一辈子	-7073
不但要	-7074
不同了	-7075
不要脸	-7076
不见了	-7077
两银子	-7078
为保证	-7079
主要是	-7080
也不管	-7081
也有人	-7082
五个人	-7083
从哪个	-7084
他仍然	-7085
他告诉	-7086
他曾经	-7087
他竟然	-7088
余年的	-7089
充满了	-7090
决定了	-7091
到头了	-7092
到现在	-7093
勃然大	-7094
勇气和	-7095
却一直	-7096
却从未	-7097
发火了	-7098
发生在	-7099
发生的	-7100
另一位	-7101
只能是	-7102
史料中	-7103
吃饱了	-7104
合适的	-7105
响亮的	-7106
哲学家	-7107
嘉靖的	-7108
回去吧	-7109
固定的	-7110
在家里	-7111
地笑了	-7112
完美的	-7113
官员的	-7114
实在很	-7115
已经很	-7116
往死里	-7117
战斗中	-7118
打招呼	-7119
找上门	-7120
找了个	-7121
搞定了	-7122
时间里	-7123
明宣宗	-7124
更不是	-7125
更何况	-7126
最终的	-7127
最高的	-7128
有如此	-7129
有能力	-7130
杀死了	-7131
正准备	-7132
正是他	-7133
正月初	-7134
每个人	-7135
潘季驯	-7136
熊大人	-7137
现在是	-7138
生儿子	-7139
的人是	-7140
的夏言	-7141
的方向	-7142
的身上	-7143
皇三子	-7144
眼睁睁	-7145
神秘的	-7146
立马就	-7147
考成法	-7148
胡士相	-7149
能打的	-7150
自己也	-7151
至少在	-7152
葡萄牙	-7153
表现为	-7154
角度讲	-7155
设置了	-7156
证明了	-7157
说他是	-7158
请注意	-7159
赵贞吉	-7160
还不能	-7161
还比较	-7162
还没完	-7163
这其中	-7164
那真是	-7165
都可以	-7166
面对的	-7167
韩一良	-7168
麻烦的	-7169
▁但这个	-7170
▁我认为	-7171
▁朱祐樘	-7172
▁说起来	-7173
一个月后	-7174
一声令下	-7175
一言不发	-7176
万两白银	-7177
不了多久	-7178
也不可能	-7179
也是可以	-7180
亲自上阵	-7181
人心惶惶	-7182
仔细分析	-7183
他不知道	-7184
他也没有	-7185
他的行为	-7186
他第一次	-7187
几个月后	-7188
出阁读书	-7189
勃然大怒	-7190
十分厉害	-7191
即将到来	-7192
即将开始	-7193
只要能够	-7194
大不相同	-7195
大惊失色	-7196
天下第一	-7197
如果不是	-7198
就变成了	-7199
就是这么	-7200
并不是他	-7201
张璁先生	-7202
户部尚书	-7203
文武百官	-7204
既然如此	-7205
是朱元璋	-7206
是肯定的	-7207
最终还是	-7208
派出使者	-7209
的小人物	-7210
目前为止	-7211
眼前这个	-7212
确实是个	-7213
给朱元璋	-7214
绝不可能	-7215
聪明的人	-7216
自己的人	-7217
自然不会	-7218
蒙古部落	-7219
身经百战	-7220
身边的人	-7221
这么多人	-7222
这些东西	-7223
这句话的	-7224
这是因为	-7225
这样下去	-7226
闲来无事	-7227
二十万大军	-7228
作出了一个	-7229
发现了一个	-7230
名副其实的	-7231
因为他已经	-7232
属于自己的	-7233
忽略了一个	-7234
摸不着头脑	-7235
(1592)	-7236
(1593)	-7237
(1627)	-7238
”(	-7239
▁十	-7240
▁综	-7241
▁该	-7242
▁赵	-7243
一世	-7244
一只	-7245
一堆	-7246
一座	-7247
一气	-7248
一部	-7249
一面	-7250
三路	-7251
上演	-7252
上讲	-7253
下课	-7254
不为	-7255
不爽	-7256
不由	-7257
东北	-7258
两路	-7259
之势	-7260
之名	-7261
也真	-7262
书籍	-7263
乱世	-7264
了得	-7265
五人	-7266
人后	-7267
人马	-7268
仍旧	-7269
从事	-7270
他人	-7271
他以	-7272
他妈	-7273
他没	-7274
他跟	-7275
代理	-7276
传播	-7277
但从	-7278
何地	-7279
你不	-7280
佥事	-7281
僵局	-7282
入关	-7283
全线	-7284
全面	-7285
六万	-7286
共戴	-7287
关注	-7288
其数	-7289
再不	-7290
决裂	-7291
准则	-7292
几条	-7293
分之	-7294
列出	-7295
到任	-7296
前程	-7297
劝他	-7298
匹敌	-7299
十岁	-7300
千载	-7301
南原	-7302
占了	-7303
却已	-7304
厌恶	-7305
原始	-7306
去干	-7307
去当	-7308
参军	-7309
发作	-7310
取代	-7311
只想	-7312
可贵	-7313
史官	-7314
号人	-7315
合一	-7316
名次	-7317
后事	-7318
呆着	-7319
告示	-7320
和气	-7321
唯有	-7322
啼笑	-7323
喊话	-7324
喜爱	-7325
噩梦	-7326
四岁	-7327
四方	-7328
回国	-7329
国库	-7330
在手	-7331
地名	-7332
地里	-7333
堂高	-7334
境内	-7335
壮志	-7336
外国	-7337
多余	-7338
大义	-7339
大体	-7340
大势	-7341
大恶	-7342
大汗	-7343
大海	-7344
大笔	-7345
大肆	-7346
大队	-7347
天王	-7348
天空	-7349
太常	-7350
头发	-7351
头彻	-7352
奸细	-7353
始至	-7354
子明	-7355
孜省	-7356
学员	-7357
学派	-7358
宁静	-7359
安徽	-7360
安然	-7361
官军	-7362
寝宫	-7363
封锁	-7364
尊敬	-7365
尊素	-7366
小说	-7367
少卿	-7368
尔浒	-7369
就地	-7370
就连	-7371
居高	-7372
屠杀	-7373
岳飞	-7374
年级	-7375
幸好	-7376
广微	-7377
府的	-7378
庞大	-7379
强敌	-7380
强行	-7381
必成	-7382
思议	-7383
怠慢	-7384
悠久	-7385
悬崖	-7386
悼会	-7387
我有	-7388
扬州	-7389
拥立	-7390
指着	-7391
捕鱼	-7392
捞钱	-7393
支票	-7394
敌阵	-7395
无助	-7396
日方	-7397
景仰	-7398
有功	-7399
本着	-7400
本部	-7401
杀声	-7402
极限	-7403
梃击	-7404
棍子	-7405
榜样	-7406
正茂	-7407
死守	-7408
毕业	-7409
民工	-7410
气数	-7411
江东	-7412
沮丧	-7413
泗川	-7414
泰州	-7415
清除	-7416
灵机	-7417
烦了	-7418
王岳	-7419
玩了	-7420
现任	-7421
理智	-7422
皮岛	-7423
看他	-7424
看在	-7425
眼皮	-7426
砍死	-7427
私塾	-7428
穷追	-7429
答道	-7430
筹划	-7431
算数	-7432
紧密	-7433
绝妙	-7434
编修	-7435
翻脸	-7436
老朱	-7437
老牌	-7438
老的	-7439
者是	-7440
脚步	-7441
腰带	-7442
自觉	-7443
良知	-7444
色彩	-7445
血书	-7446
装疯	-7447
要命	-7448
要用	-7449
计谋	-7450
许可	-7451
谁的	-7452
谈何	-7453
谋杀	-7454
走私	-7455
越发	-7456
踌躇	-7457
迎敌	-7458
还想	-7459
这时	-7460
这道	-7461
追上	-7462
退路	-7463
逃兵	-7464
逃命	-7465
重用	-7466
金字	-7467
长了	-7468
问了	-7469
难受	-7470
集合	-7471
首诗	-7472
骂他	-7473
高官	-7474
鬼子	-7475
鬼才	-7476
麻叶	-7477
龙套	-7478
▁可能	-7479
▁总之	-7480
▁战斗	-7481
▁王华	-7482
▁综合	-7483
▁自打	-7484
▁至正	-7485
▁那就	-7486
》、《	-7487
一定能	-7488
一部分	-7489
上当了	-7490
下定了	-7491
不怕死	-7492
不胜数	-7493
不行了	-7494
不高兴	-7495
严厉的	-7496
也已经	-7497
习惯了	-7498
了一场	-7499
了一年	-7500
了一点	-7501
了一顿	-7502
了回去	-7503
了过来	-7504
事情的	-7505
二十万	-7506
二杆子	-7507
五千人	-7508
他只能	-7509
他这才	-7510
你已经	-7511
做一个	-7512
傻眼了	-7513
内阁中	-7514
决不是	-7515
几十万	-7516
到时候	-7517
副部级	-7518
十年前	-7519
却从不	-7520
却是个	-7521
去哪里	-7522
又开始	-7523
反常态	-7524
发起了	-7525
口饭吃	-7526
史书中	-7527
吴惟忠	-7528
和他们	-7529
啥也不	-7530
困难的	-7531
在皇帝	-7532
城外的	-7533
堂高虎	-7534
大大的	-7535
大混混	-7536
大臣的	-7537
头彻尾	-7538
始至终	-7539
安排了	-7540
对准了	-7541
就准备	-7542
带领下	-7543
干净利	-7544
平定了	-7545
平静地	-7546
引起了	-7547
张璁的	-7548
得十分	-7549
微笑着	-7550
必定是	-7551
忽悠了	-7552
想到了	-7553
所有人	-7554
打过仗	-7555
抬起头	-7556
控制了	-7557
无一失	-7558
无耻的	-7559
既然是	-7560
时间内	-7561
明确的	-7562
是一片	-7563
更多的	-7564
更让他	-7565
最强的	-7566
有人会	-7567
极强的	-7568
死不活	-7569
殷正茂	-7570
沉重的	-7571
沉默了	-7572
没有错	-7573
海先生	-7574
游击队	-7575
激烈的	-7576
然后是	-7577
猛烈的	-7578
的不是	-7579
的习惯	-7580
的兵力	-7581
的尸体	-7582
的心情	-7583
的打算	-7584
的那次	-7585
的重要	-7586
第二年	-7587
紫金梁	-7588
而来的	-7589
脑海中	-7590
自然也	-7591
萨尔浒	-7592
让朱棣	-7593
该怎么	-7594
谈不上	-7595
走人了	-7596
走出了	-7597
赶走了	-7598
达成了	-7599
过来的	-7600
运气好	-7601
追悼会	-7602
邹应龙	-7603
都不会	-7604
阴谋家	-7605
除掉了	-7606
随从们	-7607
需要的	-7608
震惊了	-7609
魏广微	-7610
黄尊素	-7611
▁李东阳	-7612
▁李自成	-7613
▁沈惟敬	-7614
▁祖大寿	-7615
▁这两个	-7616
不好意思	-7617
为自己的	-7618
也不怎么	-7619
他的军队	-7620
他的手下	-7621
关宁防线	-7622
军事才能	-7623
力挽狂澜	-7624
十几年的	-7625
十分简单	-7626
可以看出	-7627
告诉他们	-7628
啼笑皆非	-7629
因为一个	-7630
在当时的	-7631
大权在握	-7632
大臣们的	-7633
就是他的	-7634
就是这个	-7635
已经没有	-7636
并不是个	-7637
应该算是	-7638
彻头彻尾	-7639
我们前面	-7640
按照这个	-7641
损失惨重	-7642
最后时刻	-7643
李景隆的	-7644
永乐大典	-7645
灵机一动	-7646
生存下去	-7647
的王守仁	-7648
简单说来	-7649
绝对不是	-7650
考试成绩	-7651
聪明绝顶	-7652
藤堂高虎	-7653
谈何容易	-7654
还没等他	-7655
这份工作	-7656
进行到底	-7657
退休回家	-7658
金银财宝	-7659
▁小西行长	-7660
▁话虽如此	-7661
几乎所有的	-7662
北京保卫战	-7663
得到了消息	-7664
意想不到的	-7665
深刻的印象	-7666
还有一个人	-7667
重要的问题	-7668
只说了一句话	-7669
▁打	-7670
一魁	-7671
七章	-7672
万苦	-7673
三甲	-7674
下到	-7675
不世	-7676
不变	-7677
不合	-7678
不守	-7679
不提	-7680
不收	-7681
不易	-7682
不该	-7683
不问	-7684
专程	-7685
久了	-7686
乐乎	-7687
九章	-7688
也都	-7689
人情	-7690
人是	-7691
从中	-7692
他走	-7693
他那	-7694
仗打	-7695
代之	-7696
以身	-7697
仲明	-7698
优点	-7699
伤心	-7700
住处	-7701
体乾	-7702
何可	-7703
侵略	-7704
做个	-7705
做绝	-7706
偷袭	-7707
像他	-7708
元均	-7709
光是	-7710
入贡	-7711
八章	-7712
公爵	-7713
六章	-7714
关照	-7715
其名	-7716
兼职	-7717
军令	-7718
冲出	-7719
凛凛	-7720
几种	-7721
出声	-7722
出手	-7723
出路	-7724
刑罚	-7725
刘台	-7726
初年	-7727
刻苦	-7728
前锋	-7729
办吧	-7730
功勋	-7731
加班	-7732
动向	-7733
勤恳	-7734
半个	-7735
卖命	-7736
却有	-7737
原理	-7738
去看	-7739
又没	-7740
又要	-7741
叫他	-7742
可就	-7743
号称	-7744
各有	-7745
吉利	-7746
名词	-7747
后方	-7748
后期	-7749
向往	-7750
含糊	-7751
吵架	-7752
周王	-7753
哪些	-7754
善良	-7755
喝醉	-7756
四章	-7757
回朝	-7758
国能	-7759
国际	-7760
地去	-7761
场所	-7762
培训	-7763
基于	-7764
堂堂	-7765
境况	-7766
声势	-7767
外人	-7768
外表	-7769
多个	-7770
多多	-7771
多活	-7772
大员	-7773
大部	-7774
太保	-7775
太差	-7776
夸张	-7777
夺走	-7778
好在	-7779
威信	-7780
守住	-7781
宋忠	-7782
定罪	-7783
宣德	-7784
宫廷	-7785
宿命	-7786
对待	-7787
就先	-7788
就别	-7789
层次	-7790
屈辱	-7791
山沟	-7792
平常	-7793
平江	-7794
平淡	-7795
床上	-7796
应元	-7797
建功	-7798
开涮	-7799
张敏	-7800
强盛	-7801
归来	-7802
很强	-7803
徐辉	-7804
忠于	-7805
急于	-7806
怪异	-7807
总会	-7808
总共	-7809
总有	-7810
情愿	-7811
惊心	-7812
惭愧	-7813
想后	-7814
惹的	-7815
慈悲	-7816
成章	-7817
成败	-7818
战乱	-7819
户口	-7820
所为	-7821
打着	-7822
批红	-7823
抓人	-7824
拉帮	-7825
招降	-7826
拼杀	-7827
拿他	-7828
挖坑	-7829
挥手	-7830
捞点	-7831
换个	-7832
排挤	-7833
接应	-7834
搞好	-7835
撤走	-7836
收买	-7837
改了	-7838
攻势	-7839
放下	-7840
数次	-7841
整体	-7842
新河	-7843
方司	-7844
既往	-7845
昌安	-7846
是真	-7847
晚了	-7848
普及	-7849
景泰	-7850
暴跳	-7851
暴露	-7852
有意	-7853
本分	-7854
朱熹	-7855
朵颜	-7856
机器	-7857
权倾	-7858
李士	-7859
条路	-7860
棉花	-7861
概念	-7862
此文	-7863
死党	-7864
死无	-7865
民主	-7866
气焰	-7867
永光	-7868
求援	-7869
河道	-7870
油水	-7871
治国	-7872
派去	-7873
淘汰	-7874
深深	-7875
焦芳	-7876
爪牙	-7877
版本	-7878
牢记	-7879
独立	-7880
玄机	-7881
王学	-7882
理所	-7883
用贤	-7884
申请	-7885
男人	-7886
百万	-7887
的不	-7888
的都	-7889
的风	-7890
皆知	-7891
看错	-7892
硬的	-7893
确信	-7894
秉笔	-7895
秩序	-7896
称谓	-7897
立场	-7898
站立	-7899
等于	-7900
算卦	-7901
管闲	-7902
练兵	-7903
织田	-7904
绑匪	-7905
维持	-7906
考功	-7907
考察	-7908
而归	-7909
而这	-7910
耻辱	-7911
聚集	-7912
背影	-7913
脸皮	-7914
腥风	-7915
腾达	-7916
自我	-7917
花招	-7918
苦难	-7919
落花	-7920
著作	-7921
血雨	-7922
要不	-7923
要你	-7924
要杀	-7925
认可	-7926
讲过	-7927
请他	-7928
读了	-7929
谈论	-7930
负伤	-7931
负担	-7932
贪婪	-7933
赶考	-7934
跟我	-7935
路过	-7936
踏入	-7937
身处	-7938
转向	-7939
软硬	-7940
较量	-7941
还差	-7942
还给	-7943
这项	-7944
远处	-7945
送钱	-7946
逃亡	-7947
遇见	-7948
遍了	-7949
道义	-7950
那份	-7951
那场	-7952
都得	-7953
重围	-7954
重点	-7955
门户	-7956
闹了	-7957
阴招	-7958
阴暗	-7959
除外	-7960
难保	-7961
顺手	-7962
顽固	-7963
顿饭	-7964
领土	-7965
颇有	-7966
风发	-7967
飞黄	-7968
黑状	-7969
龙湾	-7970
▁但当	-7971
▁可他	-7972
▁孙燧	-7973
▁宁王	-7974
▁杨善	-7975
▁此刻	-7976
▁盛庸	-7977
▁直到	-7978
一年后	-7979
一生的	-7980
三万人	-7981
三大营	-7982
下西洋	-7983
不上了	-7984
不住的	-7985
不识字	-7986
东安门	-7987
中进士	-7988
也不行	-7989
也只是	-7990
也实在	-7991
也应该	-7992
也真是	-7993
了一回	-7994
了一天	-7995
了半天	-7996
了过去	-7997
事情闹	-7998
亦乐乎	-7999
他就会	-8000
他必须	-8001
他还要	-8002
以为然	-8003
但我们	-8004
但这位	-8005
何可纲	-8006
余大成	-8007
充分地	-8008
光明的	-8009
军之中	-8010
几个字	-8011
凭借着	-8012
出现的	-8013
刘养正	-8014
到他的	-8015
十几天	-8016
半个月	-8017
即使你	-8018
却还是	-8019
发工资	-8020
合理的	-8021
向自己	-8022
告诉我	-8023
和哈铭	-8024
和自己	-8025
在外面	-8026
在辽东	-8027
大家的	-8028
好下场	-8029
安定门	-8030
对自己	-8031
封奏疏	-8032
将来的	-8033
就不好	-8034
就来了	-8035
带头的	-8036
干活的	-8037
并表示	-8038
当年他	-8039
很可能	-8040
很有趣	-8041
怎么说	-8042
想出了	-8043
我们将	-8044
我们要	-8045
我说过	-8046
打交道	-8047
把皇帝	-8048
把这些	-8049
是一场	-8050
是不敢	-8051
有一些	-8052
有问题	-8053
杀伤力	-8054
李孜省	-8055
每一个	-8056
每天都	-8057
海县令	-8058
海瑞的	-8059
深厚的	-8060
潜规则	-8061
独特的	-8062
王巡抚	-8063
理解了	-8064
生活中	-8065
留下的	-8066
百分之	-8067
的一些	-8068
的下属	-8069
的决心	-8070
的准备	-8071
的危险	-8072
的处理	-8073
的奏折	-8074
的学生	-8075
的心灵	-8076
的战争	-8077
的战役	-8078
的梦想	-8079
的笑容	-8080
的经历	-8081
的老乡	-8082
的脑袋	-8083
的船队	-8084
的领导	-8085
皇帝也	-8086
神一魁	-8087
第一号	-8088
结结实	-8089
老先生	-8090
而且他	-8091
而自己	-8092
耿仲明	-8093
职方司	-8094
被朱棣	-8095
觉昌安	-8096
这三个	-8097
这么久	-8098
这次是	-8099
这正是	-8100
进了宫	-8101
那年头	-8102
都不行	-8103
都不要	-8104
都是有	-8105
默默地	-8106
(160	-8107
▁他没有	-8108
▁周延儒	-8109
▁没办法	-8110
▁胡惟庸	-8111
▁这一次	-8112
▁这下子	-8113
▁这样的	-8114
万无一失	-8115
不可思议	-8116
不计其数	-8117
之后不久	-8118
也不知道	-8119
了一个月	-8120
二十五年	-8121
他遇到了	-8122
但他依然	-8123
作战计划	-8124
做好准备	-8125
八月二十	-8126
写了一封	-8127
几十万人	-8128
却并没有	-8129
发动总攻	-8130
发起进攻	-8131
名留青史	-8132
向朱元璋	-8133
因为他是	-8134
在他们的	-8135
坚持下去	-8136
大声说道	-8137
威风凛凛	-8138
就在这里	-8139
当即表示	-8140
很快就会	-8141
很长时间	-8142
怎么办呢	-8143
怎么可能	-8144
思想准备	-8145
意气风发	-8146
我们已经	-8147
打了败仗	-8148
拉开序幕	-8149
收拾行李	-8150
日本国内	-8151
时间问题	-8152
是不可能	-8153
暴跳如雷	-8154
朝廷首辅	-8155
松了口气	-8156
根本没有	-8157
终于到了	-8158
绝不仅仅	-8159
而是因为	-8160
自此之后	-8161
落花流水	-8162
被任命为	-8163
说了一句	-8164
越来越少	-8165
这些都是	-8166
这支部队	-8167
这种行为	-8168
非但没有	-8169
风光无限	-8170
飞黄腾达	-8171
饱读诗书	-8172
▁接下来的	-8173
下定了决心	-8174
严重的问题	-8175
从哪个角度	-8176
但无论如何	-8177
只有一个人	-8178
唯一的选择	-8179
实现自己的	-8180
松了一口气	-8181
袁彬和哈铭	-8182
(1519)	-8183
(1620)	-8184
▁万历二十年	-8185
▁更重要的是	-8186
却惊奇地发现	-8187
后果不堪设想	-8188
这个人的名字	-8189
这样的一个人	-8190
12	-8191
▁丁	-8192
▁四	-8193
▁死	-8194
一到	-8195
一层	-8196
一意	-8197
一枪	-8198
一璟	-8199
一网	-8200
万物	-8201
三元	-8202
三岁	-8203
三朝	-8204
下旨	-8205
下海	-8206
不止	-8207
不求	-8208
不法	-8209
不白	-8210
不讲	-8211
世代	-8212
世纪	-8213
业余	-8214
丢人	-8215
严惩	-8216
中心	-8217
丰功	-8218
临江	-8219
为己	-8220
主使	-8221
之情	-8222
之罪	-8223
乞丐	-8224
也多	-8225
二去	-8226
二日	-8227
二楚	-8228
于事	-8229
亡命	-8230
产品	-8231
京军	-8232
人亡	-8233
人选	-8234
仅有	-8235
仅次	-8236
仇人	-8237
仗着	-8238
以勤	-8239
会来	-8240
传出	-8241
伤害	-8242
伯温	-8243
佛郎	-8244
你家	-8245
你看	-8246
例子	-8247
俗称	-8248
保留	-8249
信用	-8250
修书	-8251
倪文	-8252
值班	-8253
倾向	-8254
做人	-8255
僧人	-8256
克制	-8257
兢兢	-8258
入京	-8259
全是	-8260
全然	-8261
八百	-8262
八道	-8263
六百	-8264
六科	-8265
兵临	-8266
兵油	-8267
养子	-8268
再打	-8269
再敢	-8270
写作	-8271
军区	-8272
冲天	-8273
冷冷	-8274
凶险	-8275
出色	-8276
击沉	-8277
分量	-8278
判定	-8279
到尾	-8280
制造	-8281
刺激	-8282
动魄	-8283
勿论	-8284
包裹	-8285
千秋	-8286
升迁	-8287
卑劣	-8288
即是	-8289
厉声	-8290
去不	-8291
又称	-8292
反贼	-8293
取胜	-8294
受过	-8295
另有	-8296
吃的	-8297
后军	-8298
后妃	-8299
君临	-8300
吩咐	-8301
和我	-8302
围着	-8303
地痞	-8304
城防	-8305
外甥	-8306
夜袭	-8307
大发	-8308
大官	-8309
大怒	-8310
大抵	-8311
大祸	-8312
大胜	-8313
天皇	-8314
太傅	-8315
太高	-8316
头头	-8317
奋力	-8318
奸人	-8319
好话	-8320
如意	-8321
妃子	-8322
威名	-8323
嫡系	-8324
子弹	-8325
孙得	-8326
实用	-8327
对人	-8328
对头	-8329
尔翼	-8330
就已	-8331
就给	-8332
就让	-8333
履历	-8334
履行	-8335
巡按	-8336
左顺	-8337
带走	-8338
平生	-8339
年份	-8340
应泰	-8341
廉洁	-8342
开展	-8343
当机	-8344
往上	-8345
往日	-8346
很想	-8347
心惊	-8348
心知	-8349
必将	-8350
必败	-8351
快乐	-8352
怎能	-8353
思前	-8354
思虑	-8355
恶霸	-8356
情急	-8357
惨了	-8358
懋卿	-8359
戏剧	-8360
我在	-8361
我还	-8362
战火	-8363
戴德	-8364
手可	-8365
打尽	-8366
打手	-8367
批判	-8368
找出	-8369
招摇	-8370
拜会	-8371
掌管	-8372
提了	-8373
改行	-8374
政事	-8375
整齐	-8376
斗志	-8377
无故	-8378
无济	-8379
无知	-8380
无语	-8381
时辰	-8382
明初	-8383
昏庸	-8384
是会	-8385
是对	-8386
最能	-8387
有史	-8388
木头	-8389
条不	-8390
来头	-8391
来往	-8392
极品	-8393
某位	-8394
根基	-8395
格杀	-8396
档案	-8397
梁芳	-8398
检查	-8399
棋子	-8400
楚党	-8401
模范	-8402
欣喜	-8403
死战	-8404
每到	-8405
气急	-8406
求饶	-8407
汝夔	-8408
河北	-8409
治安	-8410
法则	-8411
注视	-8412
流芳	-8413
消失	-8414
涉及	-8415
淮西	-8416
深算	-8417
深通	-8418
游历	-8419
溥洽	-8420
满朝	-8421
演员	-8422
照例	-8423
牌子	-8424
物品	-8425
独门	-8426
率部	-8427
王勋	-8428
王恕	-8429
理念	-8430
理的	-8431
生了	-8432
由他	-8433
番话	-8434
疏忽	-8435
疑点	-8436
疲惫	-8437
的起	-8438
的路	-8439
皇室	-8440
看准	-8441
督战	-8442
硬汉	-8443
示众	-8444
神童	-8445
神经	-8446
禅师	-8447
离了	-8448
秉谦	-8449
秋后	-8450
种田	-8451
秘书	-8452
秘诀	-8453
突发	-8454
立断	-8455
等奖	-8456
算账	-8457
精兵	-8458
紧紧	-8459
纵使	-8460
练习	-8461
细细	-8462
缺陷	-8463
美女	-8464
翻开	-8465
老谋	-8466
耳目	-8467
联合	-8468
胖子	-8469
胜算	-8470
能否	-8471
脱古	-8472
至高	-8473
舒坦	-8474
荒凉	-8475
莫测	-8476
蛮子	-8477
衙役	-8478
衣食	-8479
被选	-8480
见山	-8481
言语	-8482
誓不	-8483
讲究	-8484
谁去	-8485
财主	-8486
越过	-8487
转移	-8488
轰动	-8489
轻敌	-8490
达成	-8491
过关	-8492
还把	-8493
还被	-8494
这本	-8495
远了	-8496
远航	-8497
连连	-8498
迫于	-8499
追查	-8500
退让	-8501
逢迎	-8502
逯杲	-8503
遍野	-8504
道统	-8505
遵化	-8506
邓愈	-8507
邝埜	-8508
那你	-8509
邪恶	-8510
郭英	-8511
配角	-8512
钉子	-8513
长生	-8514
门派	-8515
阳和	-8516
陈晖	-8517
随同	-8518
难逢	-8519
雾水	-8520
面临	-8521
革职	-8522
韩旷	-8523
顺道	-8524
顾命	-8525
颤抖	-8526
驾崩	-8527
鲜血	-8528
鸯阵	-8529
鼎鼎	-8530
齐了	-8531
▁估计	-8532
▁成化	-8533
▁最先	-8534
▁李实	-8535
▁杨鹤	-8536
▁王安	-8537
▁瓦剌	-8538
▁而当	-8539
▁还有	-8540
▁这份	-8541
▁进攻	-8542
。”(	-8543
一大堆	-8544
一定的	-8545
一样的	-8546
三十岁	-8547
上万人	-8548
不会再	-8549
不可告	-8550
不地道	-8551
不好的	-8552
不打算	-8553
不能打	-8554
也就算	-8555
也没能	-8556
也相当	-8557
也纷纷	-8558
人家的	-8559
仅次于	-8560
从他的	-8561
他命令	-8562
他本来	-8563
会不会	-8564
但当他	-8565
但此时	-8566
但还是	-8567
佛郎机	-8568
你应该	-8569
使得他	-8570
倭寇的	-8571
兄弟们	-8572
先进的	-8573
光荣的	-8574
几百里	-8575
出乎他	-8576
击败了	-8577
却着实	-8578
又不是	-8579
取得了	-8580
受不了	-8581
只为了	-8582
召集了	-8583
可偏偏	-8584
史上的	-8585
同志们	-8586
听见了	-8587
唯一能	-8588
回去后	-8589
在上面	-8590
在后面	-8591
大凌河	-8592
大家就	-8593
大恶极	-8594
天下人	-8595
好好的	-8596
孤独的	-8597
宁远城	-8598
对这些	-8599
就不要	-8600
就去了	-8601
尽全力	-8602
工作是	-8603
左侍郎	-8604
干出了	-8605
并不想	-8606
幸运的	-8607
庞大的	-8608
往往是	-8609
很正常	-8610
徐大人	-8611
徐辉祖	-8612
恍然大	-8613
感兴趣	-8614
感到了	-8615
所以我	-8616
搞阴谋	-8617
时期的	-8618
是一条	-8619
是个人	-8620
是值得	-8621
是怎么	-8622
是有着	-8623
是自己	-8624
最精锐	-8625
朝中的	-8626
杀了他	-8627
杀手锏	-8628
来找他	-8629
杰出的	-8630
极度的	-8631
样东西	-8632
此人的	-8633
比不上	-8634
没人管	-8635
没有钱	-8636
活下来	-8637
消停过	-8638
清楚的	-8639
的和尚	-8640
的感觉	-8641
的水平	-8642
的看着	-8643
的经验	-8644
的联系	-8645
的记载	-8646
的语气	-8647
皇太子	-8648
皇帝都	-8649
监狱里	-8650
破人亡	-8651
禁不住	-8652
竟然会	-8653
竟然被	-8654
经济学	-8655
考中了	-8656
考功司	-8657
考虑的	-8658
而对于	-8659
而这些	-8660
脖子上	-8661
自己有	-8662
蓝玉的	-8663
西直门	-8664
认真地	-8665
让皇帝	-8666
让自己	-8667
记住了	-8668
讲道理	-8669
负责任	-8670
赵用贤	-8671
跟皇帝	-8672
跟自己	-8673
跳出来	-8674
过他的	-8675
还算是	-8676
还记得	-8677
这一套	-8678
这几个	-8679
造反的	-8680
鄢懋卿	-8681
重要了	-8682
陈尔翼	-8683
顾秉谦	-8684
预备队	-8685
鸳鸯阵	-8686
(164	-8687
▁他虽然	-8688
▁但这次	-8689
▁俞大猷	-8690
▁其实在	-8691
▁在这种	-8692
▁大家都	-8693
▁第二十	-8694
▁而对于	-8695
▁说到底	-8696
▁这才是	-8697
一网打尽	-8698
不知所措	-8699
之处在于	-8700
也很简单	-8701
亡命之徒	-8702
人都知道	-8703
什么东西	-8704
什么样的	-8705
从来没有	-8706
传奇人物	-8707
似乎已经	-8708
似乎有点	-8709
似乎没有	-8710
全国各地	-8711
其实就是	-8712
军事天才	-8713
几天之后	-8714
刑部尚书	-8715
到底是谁	-8716
半死不活	-8717
又是一个	-8718
告诉了他	-8719
和他一起	-8720
嘉靖年间	-8721
因为就在	-8722
坚持原则	-8723
大家应该	-8724
天启皇帝	-8725
太皇太后	-8726
少数民族	-8727
已经有了	-8728
并不清楚	-8729
当机立断	-8730
怎么能够	-8731
恍然大悟	-8732
惊心动魄	-8733
所以他们	-8734
把朱祁镇	-8735
政治斗争	-8736
数不胜数	-8737
无关紧要	-8738
无数人的	-8739
无法忍受	-8740
有史以来	-8741
朱棣已经	-8742
杀人放火	-8743
格杀勿论	-8744
毕竟还是	-8745
洪武年间	-8746
犯了一个	-8747
的并不是	-8748
的政治家	-8749
的朱厚照	-8750
的朱祁镇	-8751
眼看就要	-8752
确切地说	-8753
终究没有	-8754
经济问题	-8755
罪大恶极	-8756
老谋深算	-8757
而朱元璋	-8758
自然是要	-8759
蒙古贵族	-8760
还在后面	-8761
这一辈子	-8762
这个人是	-8763
这场战争	-8764
阁大学士	-8765
不过是一个	-8766
了一个多月	-8767
从某种意义	-8768
具体表现为	-8769
在他的心中	-8770
大明帝国的	-8771
实在不是个	-8772
意外发生了	-8773
改变了主意	-8774
最后的胜利	-8775
极为重要的	-8776
自己的军队	-8777
自己的父亲	-8778
至高无上的	-8779
重要的原因	-8780
▁原因很简单	-8781
▁顺便说一句	-8782
做梦也想不到	-8783
▁罗	-8784
一共	-8785
一分	-8786
一如	-8787
一打	-8788
一笔	-8789
一脸	-8790
一遍	-8791
一项	-8792
七人	-8793
万事	-8794
万里	-8795
上场	-8796
不中	-8797
不值	-8798
不宜	-8799
不然	-8800
不语	-8801
不难	-8802
中期	-8803
之事	-8804
九千	-8805
九州	-8806
也别	-8807
也许	-8808
也说	-8809
了吗	-8810
了好	-8811
争斗	-8812
亲家	-8813
亲密	-8814
人少	-8815
人缘	-8816
他正	-8817
任意	-8818
休养	-8819
优等	-8820
传言	-8821
伦比	-8822
但她	-8823
但对	-8824
作案	-8825
依据	-8826
借机	-8827
做饭	-8828
儿童	-8829
六人	-8830
兴高	-8831
养活	-8832
再厉	-8833
再接	-8834
冤家	-8835
冥思	-8836
冲右	-8837
几件	-8838
凡事	-8839
出奇	-8840
出行	-8841
刘福	-8842
创意	-8843
到他	-8844
制的	-8845
力不	-8846
力和	-8847
勉强	-8848
十八	-8849
千辛	-8850
半夜	-8851
卧底	-8852
历来	-8853
厌倦	-8854
厮杀	-8855
去抢	-8856
县衙	-8857
及其	-8858
反驳	-8859
发放	-8860
只等	-8861
号令	-8862
吃苦	-8863
同僚	-8864
名堂	-8865
后头	-8866
吓唬	-8867
君主	-8868
吴中	-8869
告成	-8870
周嘉	-8871
品级	-8872
喊道	-8873
囚徒	-8874
四海	-8875
回音	-8876
在与	-8877
在地	-8878
地势	-8879
地把	-8880
坐船	-8881
堪外	-8882
增援	-8883
多种	-8884
多远	-8885
大举	-8886
大吼	-8887
大摆	-8888
大破	-8889
天平	-8890
太小	-8891
夫人	-8892
失声	-8893
女孩	-8894
奸邪	-8895
好感	-8896
妇女	-8897
孙女	-8898
孤城	-8899
孤立	-8900
学会	-8901
宠爱	-8902
家当	-8903
寡妇	-8904
对了	-8905
封了	-8906
射程	-8907
就差	-8908
就想	-8909
就真	-8910
尽力	-8911
屡战	-8912
岂有	-8913
布防	-8914
帮你	-8915
幼稚	-8916
建州	-8917
建设	-8918
弓弩	-8919
引发	-8920
张彩	-8921
张軏	-8922
张钦	-8923
弱小	-8924
弹章	-8925
御马	-8926
徭役	-8927
心地	-8928
必可	-8929
忽然	-8930
恐慌	-8931
恭喜	-8932
悚然	-8933
悬念	-8934
情感	-8935
惊恐	-8936
想抢	-8937
感冒	-8938
慈禧	-8939
所长	-8940
手脚	-8941
托人	-8942
投敌	-8943
拉着	-8944
拥护	-8945
拿出	-8946
挽留	-8947
捣乱	-8948
掉头	-8949
接见	-8950
收兵	-8951
政绩	-8952
教授	-8953
敢死	-8954
敬佩	-8955
数千	-8956
文学	-8957
料理	-8958
新闻	-8959
旗鼓	-8960
无穷	-8961
更大	-8962
朝会	-8963
本地	-8964
本领	-8965
权位	-8966
李实	-8967
李昖	-8968
来由	-8969
来者	-8970
松山	-8971
板子	-8972
树立	-8973
横行	-8974
每人	-8975
每逢	-8976
水利	-8977
治理	-8978
沿途	-8979
活人	-8980
流涕	-8981
浑身	-8982
浩浩	-8983
漫长	-8984
潮流	-8985
激昂	-8986
火光	-8987
炮声	-8988
烧杀	-8989
焦急	-8990
特征	-8991
特派	-8992
珠宝	-8993
瓦解	-8994
生动	-8995
生日	-8996
用场	-8997
用手	-8998
病重	-8999
相似	-9000
看不	-9001
看你	-9002
着吧	-9003
破灭	-9004
确保	-9005
示威	-9006
私自	-9007
穷困	-9008
第五	-9009
箭射	-9010
繁华	-9011
红丸	-9012
纷争	-9013
结合	-9014
给个	-9015
给人	-9016
羡慕	-9017
而后	-9018
肃贪	-9019
胆寒	-9020
胡乱	-9021
脆弱	-9022
自有	-9023
自行	-9024
草原	-9025
荡平	-9026
药材	-9027
获知	-9028
落井	-9029
落后	-9030
落魄	-9031
董事	-9032
蒋瑶	-9033
虽是	-9034
蠢事	-9035
街上	-9036
补充	-9037
襄阳	-9038
西南	-9039
要先	-9040
要当	-9041
要的	-9042
规范	-9043
讲了	-9044
许国	-9045
证了	-9046
话下	-9047
说句	-9048
说完	-9049
说说	-9050
谁来	-9051
调遣	-9052
赎金	-9053
超过	-9054
越好	-9055
躺在	-9056
转机	-9057
转瞬	-9058
转转	-9059
轰鸣	-9060
辛勤	-9061
过年	-9062
迎来	-9063
返回	-9064
这回	-9065
这招	-9066
远大	-9067
迷雾	-9068
追认	-9069
退出	-9070
逢年	-9071
遍布	-9072
都想	-9073
都用	-9074
重镇	-9075
金英	-9076
钻研	-9077
门下	-9078
问话	-9079
阁下	-9080
阶段	-9081
降职	-9082
险恶	-9083
随后	-9084
非凡	-9085
顺理	-9086
预先	-9087
预言	-9088
饱经	-9089
马三	-9090
骚扰	-9091
高杰	-9092
鱼肉	-9093
鼻子	-9094
!?”	-9095
136	-9096
▁二十	-9097
▁但凡	-9098
▁其中	-9099
▁冯保	-9100
▁出乎	-9101
▁在此	-9102
▁太监	-9103
▁得知	-9104
▁我曾	-9105
▁日军	-9106
▁有人	-9107
▁正如	-9108
▁没错	-9109
▁说完	-9110
一开始	-9111
七个人	-9112
下面的	-9113
不一定	-9114
不了他	-9115
不了解	-9116
不愧为	-9117
不投降	-9118
不用再	-9119
不要再	-9120
东厂的	-9121
两年后	-9122
丧失了	-9123
中国的	-9124
丰功伟	-9125
为国家	-9126
为我们	-9127
之后又	-9128
也不少	-9129
也并非	-9130
也着实	-9131
了一些	-9132
二十多	-9133
于心计	-9134
亮出了	-9135
什么人	-9136
介绍了	-9137
他可以	-9138
他所料	-9139
他有着	-9140
他错了	-9141
众多的	-9142
会打仗	-9143
但此人	-9144
体现了	-9145
你小子	-9146
俗话说	-9147
公认的	-9148
兴高采	-9149
写文章	-9150
冥思苦	-9151
准备好	-9152
几千年	-9153
出发前	-9154
分配到	-9155
加入了	-9156
勤勤恳	-9157
十一日	-9158
十五岁	-9159
十余万	-9160
却也不	-9161
厉害的	-9162
又来了	-9163
只用了	-9164
周嘉谟	-9165
命运的	-9166
和徐阶	-9167
和朱棣	-9168
在城头	-9169
在宫里	-9170
在当年	-9171
堪外兰	-9172
士大夫	-9173
多少钱	-9174
多年后	-9175
多年来	-9176
大致在	-9177
失败者	-9178
奇特的	-9179
孙得功	-9180
就到了	-9181
就够了	-9182
就死了	-9183
就知道	-9184
左冲右	-9185
希望能	-9186
度过了	-9187
得不到	-9188
御马监	-9189
必胜的	-9190
急匆匆	-9191
恨不得	-9192
想起了	-9193
愤怒的	-9194
把他的	-9195
拉关系	-9196
拉帮结	-9197
指向了	-9198
换来了	-9199
提出的	-9200
摇大摆	-9201
支部队	-9202
无尽的	-9203
无异于	-9204
是一群	-9205
是最为	-9206
是非常	-9207
最关键	-9208
有一定	-9209
朝堂上	-9210
朱棣也	-9211
李永芳	-9212
比他更	-9213
没事干	-9214
派使者	-9215
深深地	-9216
炼成的	-9217
然后再	-9218
王体乾	-9219
玩命的	-9220
玩意儿	-9221
现实的	-9222
瓦剌的	-9223
用实际	-9224
由于他	-9225
的一点	-9226
的办法	-9227
的发现	-9228
的地位	-9229
的夜晚	-9230
的少年	-9231
的弟弟	-9232
的成员	-9233
的战场	-9234
的手下	-9235
的文书	-9236
的结论	-9237
的资格	-9238
的还是	-9239
的都是	-9240
皇帝是	-9241
皇贵妃	-9242
目的是	-9243
看不到	-9244
看不见	-9245
真格的	-9246
知道他	-9247
竟然敢	-9248
算得上	-9249
管闲事	-9250
类似的	-9251
考试中	-9252
获全胜	-9253
蒙古兵	-9254
蒙古的	-9255
表现得	-9256
被人给	-9257
被封为	-9258
被打死	-9259
西路军	-9260
认为是	-9261
说一下	-9262
请诸位	-9263
走上了	-9264
过一次	-9265
过去的	-9266
还不到	-9267
这三位	-9268
这才是	-9269
这是他	-9270
这里是	-9271
进去了	-9272
部队的	-9273
都无法	-9274
钱皇后	-9275
问题了	-9276
陈以勤	-9277
(139	-9278
▁他决定	-9279
▁叶向高	-9280
▁在他的	-9281
▁在当时	-9282
▁如果说	-9283
▁孙传庭	-9284
▁明代的	-9285
▁明朝的	-9286
▁杨嗣昌	-9287
▁熊廷弼	-9288
▁许显纯	-9289
▁这一年	-9290
▁这一招	-9291
▁钱谦益	-9292
一反常态	-9293
一夜之间	-9294
一清二楚	-9295
七月二十	-9296
不可一世	-9297
不可收拾	-9298
不用担心	-9299
两个儿子	-9300
中的一员	-9301
之前已经	-9302
事后证明	-9303
于是他们	-9304
交给了他	-9305
从此以后	-9306
仔细观察	-9307
他们没有	-9308
他并不是	-9309
他得到了	-9310
他意识到	-9311
他的意见	-9312
他的身边	-9313
他的部下	-9314
位高权重	-9315
作风问题	-9316
关键人物	-9317
其实并不	-9318
具体情况	-9319
再接再厉	-9320
军事会议	-9321
到了这里	-9322
勤勤恳恳	-9323
十万大军	-9324
千载难逢	-9325
千辛万苦	-9326
参加会试	-9327
可以算是	-9328
可惜的是	-9329
史料分析	-9330
和朱元璋	-9331
嘉靖四十	-9332
图谋不轨	-9333
在朝廷里	-9334
在朱元璋	-9335
在这方面	-9336
坚持到底	-9337
大家都是	-9338
大笔一挥	-9339
如无意外	-9340
孙子兵法	-9341
孤身一人	-9342
尼堪外兰	-9343
工于心计	-9344
已经十分	-9345
建功立业	-9346
微不足道	-9347
思前想后	-9348
情急之下	-9349
想了一下	-9350
战场上的	-9351
打了一顿	-9352
打死也不	-9353
按照规定	-9354
掌握之中	-9355
提出辞职	-9356
搞笑的是	-9357
放心大胆	-9358
无人可挡	-9359
无人知晓	-9360
早有准备	-9361
是个例外	-9362
最高长官	-9363
有自己的	-9364
极为重要	-9365
查了一下	-9366
气急败坏	-9367
浩浩荡荡	-9368
痛哭流涕	-9369
登上皇位	-9370
的一句话	-9371
的名字叫	-9372
的消息后	-9373
皇帝那里	-9374
看着这个	-9375
祖大寿的	-9376
秉笔太监	-9377
种种迹象	-9378
稀里糊涂	-9379
等了很久	-9380
虽然是个	-9381
被杀掉了	-9382
解决不了	-9383
许多人都	-9384
讽刺意味	-9385
说明一下	-9386
辽东巡抚	-9387
达到目的	-9388
迎接他的	-9389
这不过是	-9390
这个人叫	-9391
这几个人	-9392
这篇文章	-9393
追究责任	-9394
逢年过节	-9395
都察院的	-9396
都指挥使	-9397
难得的是	-9398
非常高兴	-9399
顺理成章	-9400
首辅大人	-9401
高级将领	-9402
▁客观地讲	-9403
▁崇祯二年	-9404
▁这个人叫	-9405
▁这样看来	-9406
下达了命令	-9407
不可告人的	-9408
他只是一个	-9409
他终于明白	-9410
到目前为止	-9411
只是因为他	-9412
可怕的对手	-9413
史料的说法	-9414
在不久之后	-9415
在他们看来	-9416
地点了点头	-9417
实在是一件	-9418
强大的敌人	-9419
彻头彻尾的	-9420
很多人看来	-9421
成为了一个	-9422
是一个很有	-9423
最好的方法	-9424
直觉告诉他	-9425
终于得到了	-9426
▁但事实证明	-9427
万历四十八年	-9428
这次也不例外	-9429
!】	-9430
1、	-9431
▁东	-9432
▁照	-9433
▁老	-9434
▁郑	-9435
一干	-9436
一拍	-9437
一方	-9438
一触	-9439
一转	-9440
七个	-9441
七岁	-9442
三角	-9443
上海	-9444
下石	-9445
下级	-9446
不搞	-9447
不迭	-9448
丢弃	-9449
两翼	-9450
中年	-9451
中第	-9452
举世	-9453
义无	-9454
之子	-9455
之学	-9456
之流	-9457
之高	-9458
乐安	-9459
九死	-9460
九门	-9461
也还	-9462
乡长	-9463
争气	-9464
争相	-9465
事发	-9466
二愣	-9467
于我	-9468
交往	-9469
交情	-9470
人去	-9471
人来	-9472
人道	-9473
仁宗	-9474
仍在	-9475
从古	-9476
他向	-9477
他娘	-9478
仙派	-9479
会元	-9480
何许	-9481
作了	-9482
你爹	-9483
侧翼	-9484
侯爵	-9485
俗语	-9486
俘获	-9487
信件	-9488
信息	-9489
偷偷	-9490
傻了	-9491
儿海	-9492
光杆	-9493
全州	-9494
全身	-9495
公章	-9496
兰州	-9497
关卡	-9498
关口	-9499
兵变	-9500
兵种	-9501
其为	-9502
其解	-9503
内心	-9504
再三	-9505
再度	-9506
再用	-9507
写过	-9508
军人	-9509
军长	-9510
军阀	-9511
冷淡	-9512
几番	-9513
凡响	-9514
刀光	-9515
分割	-9516
分散	-9517
列阵	-9518
利品	-9519
到晚	-9520
前行	-9521
办的	-9522
功德	-9523
加以	-9524
包天	-9525
半句	-9526
单独	-9527
卖了	-9528
卖力	-9529
南北	-9530
卢洪	-9531
卫生	-9532
即可	-9533
即溃	-9534
反顾	-9535
发表	-9536
取消	-9537
叙述	-9538
古里	-9539
可笑	-9540
吃不	-9541
各路	-9542
同期	-9543
同胞	-9544
名额	-9545
含量	-9546
听了	-9547
听完	-9548
呆呆	-9549
告终	-9550
呐喊	-9551
和你	-9552
哈达	-9553
回天	-9554
回营	-9555
团体	-9556
困境	-9557
国号	-9558
国本	-9559
地域	-9560
地覆	-9561
坦白	-9562
多方	-9563
大作	-9564
大凡	-9565
大多	-9566
大振	-9567
大用	-9568
大罪	-9569
天翻	-9570
失常	-9571
头地	-9572
头来	-9573
奔袭	-9574
好几	-9575
好用	-9576
妥当	-9577
妹妹	-9578
娶了	-9579
子里	-9580
字的	-9581
学名	-9582
孬种	-9583
宋朝	-9584
宋江	-9585
完事	-9586
官做	-9587
官府	-9588
宫内	-9589
容忍	-9590
密切	-9591
寡言	-9592
对岸	-9593
将相	-9594
小儿	-9595
小弟	-9596
就任	-9597
尽忠	-9598
尽快	-9599
屹立	-9600
岛主	-9601
工业	-9602
已晚	-9603
布衣	-9604
师傅	-9605
带有	-9606
带队	-9607
干啥	-9608
干好	-9609
干将	-9610
干涉	-9611
干脆	-9612
平均	-9613
年年	-9614
幸存	-9615
广大	-9616
延平	-9617
建筑	-9618
归于	-9619
往常	-9620
得力	-9621
德川	-9622
必胜	-9623
急忙	-9624
总体	-9625
恶毒	-9626
想过	-9627
意的	-9628
慎行	-9629
慰问	-9630
成全	-9631
成果	-9632
我都	-9633
战无	-9634
房里	-9635
所向	-9636
把它	-9637
抢走	-9638
报了	-9639
报复	-9640
拉上	-9641
拍板	-9642
招数	-9643
招聘	-9644
拟定	-9645
拳脚	-9646
挂在	-9647
指出	-9648
挡住	-9649
捷报	-9650
授意	-9651
掉的	-9652
探望	-9653
提着	-9654
提过	-9655
提防	-9656
搞不	-9657
摊牌	-9658
撤了	-9659
撤军	-9660
操控	-9661
操练	-9662
收回	-9663
收敛	-9664
改造	-9665
攻占	-9666
放任	-9667
放牛	-9668
敌手	-9669
散会	-9670
数万	-9671
旁人	-9672
无效	-9673
日复	-9674
时起	-9675
是把	-9676
是说	-9677
最先	-9678
有三	-9679
有啥	-9680
有种	-9681
朝拜	-9682
本意	-9683
本色	-9684
本营	-9685
术语	-9686
杀他	-9687
板砖	-9688
枭雄	-9689
桌子	-9690
模型	-9691
次数	-9692
欧洲	-9693
每当	-9694
毛病	-9695
毛骨	-9696
沙场	-9697
活路	-9698
海外	-9699
淳安	-9700
淹死	-9701
滔滔	-9702
火了	-9703
点火	-9704
点说	-9705
烧了	-9706
热血	-9707
猜测	-9708
王八	-9709
王爷	-9710
王琼	-9711
生人	-9712
画像	-9713
疑虑	-9714
白了	-9715
百思	-9716
百般	-9717
的灯	-9718
的确	-9719
相处	-9720
省的	-9721
真定	-9722
眼下	-9723
眼神	-9724
知行	-9725
砍杀	-9726
碰到	-9727
礼遇	-9728
祖国	-9729
离职	-9730
立斩	-9731
站着	-9732
端正	-9733
笔记	-9734
等死	-9735
类人	-9736
累了	-9737
纵观	-9738
纸条	-9739
结婚	-9740
编制	-9741
置之	-9742
置信	-9743
美国	-9744
老了	-9745
老命	-9746
老爷	-9747
胁迫	-9748
胆战	-9749
背负	-9750
胡子	-9751
能用	-9752
自动	-9753
自居	-9754
自知	-9755
舍弃	-9756
舒服	-9757
良民	-9758
苦大	-9759
英宗	-9760
血流	-9761
血液	-9762
血淋	-9763
行刑	-9764
表态	-9765
被拉	-9766
被捕	-9767
被整	-9768
西方	-9769
要强	-9770
要找	-9771
让她	-9772
议和	-9773
议礼	-9774
说着	-9775
谁知	-9776
谥号	-9777
谭渊	-9778
贫困	-9779
赞赏	-9780
走得	-9781
赶去	-9782
起家	-9783
路边	-9784
身先	-9785
载入	-9786
较真	-9787
辙了	-9788
边疆	-9789
还未	-9790
这块	-9791
进言	-9792
迟钝	-9793
退回	-9794
送上	-9795
通政	-9796
那我	-9797
那次	-9798
郧阳	-9799
郭朴	-9800
都说	-9801
酒席	-9802
醒了	-9803
重复	-9804
金瓶	-9805
金钱	-9806
釜山	-9807
铁杆	-9808
铠甲	-9809
银两	-9810
门人	-9811
门前	-9812
门卫	-9813
阵容	-9814
阵脚	-9815
阿拉	-9816
降临	-9817
降低	-9818
陷害	-9819
难能	-9820
集庆	-9821
预测	-9822
额外	-9823
风吹	-9824
风格	-9825
飞扬	-9826
首级	-9827
首都	-9828
驰骋	-9829
骂声	-9830
骨气	-9831
高于	-9832
高地	-9833
高尚	-9834
高度	-9835
鸦雀	-9836
黑了	-9837
黑夜	-9838
龙场	-9839
龟缩	-9840
龟船	-9841
?”(	-9842
▁一切	-9843
▁两人	-9844
▁内阁	-9845
▁或许	-9846
▁战争	-9847
▁朝廷	-9848
▁杨慎	-9849
▁消息	-9850
▁看到	-9851
▁至元	-9852
▁还是	-9853
▁这件	-9854
一个词	-9855
一向是	-9856
一点不	-9857
不一样	-9858
不下来	-9859
不共戴	-9860
不可测	-9861
不干了	-9862
不正常	-9863
不能用	-9864
不过了	-9865
与严嵩	-9866
两百年	-9867
临死前	-9868
临走时	-9869
为他的	-9870
为皇帝	-9871
乖乖地	-9872
也是要	-9873
了一位	-9874
了一圈	-9875
了一道	-9876
了下去	-9877
了解了	-9878
了进去	-9879
人们的	-9880
从一个	-9881
从哪里	-9882
他亲自	-9883
他总是	-9884
他最终	-9885
以为是	-9886
以此为	-9887
但这些	-9888
作战的	-9889
你们的	-9890
你还是	-9891
使用了	-9892
全都是	-9893
八个字	-9894
公平的	-9895
兵油子	-9896
农民军	-9897
几十个	-9898
几十里	-9899
出什么	-9900
分析了	-9901
刘国能	-9902
创造了	-9903
动不动	-9904
勇敢的	-9905
十八岁	-9906
十几万	-9907
十分有	-9908
卢洪春	-9909
却不是	-9910
却可以	-9911
原先是	-9912
原来的	-9913
只要把	-9914
召见了	-9915
向他们	-9916
吴小姐	-9917
四个月	-9918
因为它	-9919
圣人的	-9920
在前面	-9921
太大的	-9922
太常寺	-9923
如一日	-9924
妖书案	-9925
对不起	-9926
寻常的	-9927
导致了	-9928
尔不花	-9929
就把他	-9930
就让他	-9931
居高位	-9932
帮助他	-9933
平静的	-9934
废除了	-9935
张公公	-9936
张子明	-9937
当他们	-9938
影响力	-9939
得不行	-9940
得力的	-9941
得意地	-9942
忘记了	-9943
总兵力	-9944
总算是	-9945
想象中	-9946
意思了	-9947
愚蠢的	-9948
才最终	-9949
打动了	-9950
打死了	-9951
找一个	-9952
拉兄弟	-9953
拉出来	-9954
拿出来	-9955
据说他	-9956
搞不定	-9957
搞什么	-9958
搞政治	-9959
数十年	-9960
新皇帝	-9961
时代的	-9962
是不好	-9963
最重要	-9964
有一位	-9965
有可能	-9966
有多么	-9967
本人的	-9968
朱棣和	-9969
朱由检	-9970
李士实	-9971
条不紊	-9972
此事后	-9973
此后的	-9974
毛岛主	-9975
没人敢	-9976
特派员	-9977
特点是	-9978
王左桂	-9979
王永光	-9980
生气了	-9981
登上了	-9982
的两位	-9983
的企图	-9984
的全部	-9985
的愤怒	-9986
的战略	-9987
的百姓	-9988
的考验	-9989
的那位	-9990
真实的	-9991
确实很	-9992
碰上了	-9993
空印案	-9994
竟然把	-9995
算不上	-9996
类似于	-9997
组成的	-9998
终于在	-9999
绝望了	-10000
而代之	-10001
职务是	-10002
聪明的	-10003
能够在	-10004
莫过于	-10005
袁应泰	-10006
要解决	-10007
说话的	-10008
谁都不	-10009
谈判的	-10010
赢得了	-10011
超越了	-10012
足够了	-10013
跑去找	-10014
身上的	-10015
辽东的	-10016
过几天	-10017
还有点	-10018
这样想	-10019
那一刻	-10020
那意思	-10021
那是不	-10022
都不能	-10023
都有了	-10024
都没人	-10025
都没能	-10026
长安门	-10027
问了他	-10028
问出了	-10029
陈天平	-10030
难得的	-10031
靠得住	-10032
高兴地	-10033
(145	-10034
▁但他的	-10035
▁在那个	-10036
▁孔有德	-10037
▁左良玉	-10038
▁我知道	-10039
▁李善长	-10040
▁沈一贯	-10041
▁真正的	-10042
▁第二个	-10043
▁赵文华	-10044
▁这件事	-10045
▁锦衣卫	-10046
一如既往	-10047
一无所有	-10048
不动声色	-10049
不得其解	-10050
不慌不忙	-10051
不负众望	-10052
与陈友谅	-10053
两个月后	-10054
为什么会	-10055
为国效力	-10056
义无反顾	-10057
也差不多	-10058
也很正常	-10059
也有很多	-10060
乱军之中	-10061
二十九年	-10062
二十年后	-10063
亲眼目睹	-10064
他和他的	-10065
他的人生	-10066
他的弟弟	-10067
他的老婆	-10068
但在当时	-10069
但毕竟是	-10070
但这个人	-10071
何许人也	-10072
停了下来	-10073
兵临城下	-10074
再也没有	-10075
军事行动	-10076
几十年来	-10077
出人头地	-10078
十分不满	-10079
十分满意	-10080
压根就不	-10081
另一个叫	-10082
可以理解	-10083
可怕的人	-10084
后金军的	-10085
后金军队	-10086
听到消息	-10087
回家养老	-10088
在之后的	-10089
在这样的	-10090
地告诉他	-10091
坐不住了	-10092
大家一起	-10093
大摇大摆	-10094
大致就是	-10095
天下太平	-10096
天翻地覆	-10097
太平盛世	-10098
如意算盘	-10099
家破人亡	-10100
属于他的	-10101
已经开始	-10102
并不奇怪	-10103
开门见山	-10104
成为一个	-10105
我不知道	-10106
技术含量	-10107
捕鱼儿海	-10108
日复一日	-10109
是皇帝的	-10110
是自己的	-10111
最伟大的	-10112
有一个叫	-10113
有很多人	-10114
朵颜三卫	-10115
李成梁的	-10116
正式开始	-10117
毛骨悚然	-10118
消极怠工	-10119
深不可测	-10120
混口饭吃	-10121
滑稽的是	-10122
瓦剌士兵	-10123
由始至终	-10124
留了下来	-10125
的时候了	-10126
的老朋友	-10127
监察御史	-10128
眼皮底下	-10129
知行合一	-10130
竟然主动	-10131
竟然还是	-10132
第一时间	-10133
等待他的	-10134
绝对无法	-10135
绝顶高手	-10136
老奸巨滑	-10137
胡说八道	-10138
腥风血雨	-10139
自然不是	-10140
落井下石	-10141
虽然他们	-10142
解释一下	-10143
认为自己	-10144
认识到了	-10145
身先士卒	-10146
身居高位	-10147
转瞬之间	-10148
这一切的	-10149
这三个人	-10150
这些制度	-10151
这位老兄	-10152
这并不是	-10153
这支军队	-10154
这是一种	-10155
那么多的	-10156
随时准备	-10157
随时可能	-10158
难能可贵	-10159
预料之中	-10160
领导责任	-10161
风云人物	-10162
高级干部	-10163
鸦雀无声	-10164
▁也就是说	-10165
▁但事实上	-10166
▁具体说来	-10167
不是一般人	-10168
之类的玩意	-10169
但在我看来	-10170
却大不相同	-10171
另一个人的	-10172
后来的事情	-10173
大致意思是	-10174
小西行长的	-10175
左副都御史	-10176
我也不知道	-10177
截然不同的	-10178
根本就没有	-10179
的消息传来	-10180
皇帝大人的	-10181
终于走到了	-10182
经验告诉他	-10183
绝不会想到	-10184
自己的弟弟	-10185
说出了他的	-10186
这样的一个	-10187
(1449)	-10188
▁正德十四年	-10189
万历二十一年	-10190
事实告诉我们	-10191
人的名字叫做	-10192
努尔哈赤先生	-10193
历史上著名的	-10194
百思不得其解	-10195
眼睁睁地看着	-10196
!?	-10197
):	-10198
15	-10199
2、	-10200
▁很	-10201
▁能	-10202
▁马	-10203
一两	-10204
一元	-10205
一发	-10206
一处	-10207
一字	-10208
一度	-10209
一线	-10210
一身	-10211
一颗	-10212
一首	-10213
万世	-10214
万岁	-10215
上街	-10216
下一	-10217
下人	-10218
下跪	-10219
不平	-10220
不忍	-10221
不战	-10222
不把	-10223
不杀	-10224
不祥	-10225
不透	-10226
不饶	-10227
与会	-10228
专横	-10229
专长	-10230
且有	-10231
世家	-10232
丢掉	-10233
两军	-10234
两点	-10235
两面	-10236
严辞	-10237
主人	-10238
主任	-10239
之士	-10240
之心	-10241
之意	-10242
之神	-10243
也将	-10244
争夺	-10245
于他	-10246
亏了	-10247
互市	-10248
京官	-10249
人性	-10250
人间	-10251
人龙	-10252
仅凭	-10253
仅存	-10254
今晚	-10255
从军	-10256
以死	-10257
们也	-10258
价格	-10259
任用	-10260
会战	-10261
但不	-10262
位的	-10263
低估	-10264
低落	-10265
住所	-10266
住持	-10267
你当	-10268
你没	-10269
使团	-10270
供词	-10271
侦察	-10272
保佑	-10273
保姆	-10274
信仰	-10275
修理	-10276
倒台	-10277
借着	-10278
做法	-10279
停留	-10280
元帅	-10281
先行	-10282
光耀	-10283
全境	-10284
全文	-10285
关入	-10286
关押	-10287
关门	-10288
兴献	-10289
兼任	-10290
内城	-10291
再无	-10292
再等	-10293
军师	-10294
军情	-10295
冷眼	-10296
凶悍	-10297
出世	-10298
出入	-10299
出息	-10300
出过	-10301
出钱	-10302
制衡	-10303
削藩	-10304
剑影	-10305
动弹	-10306
医学	-10307
十个	-10308
十九	-10309
千余	-10310
千刀	-10311
半生	-10312
卖国	-10313
却比	-10314
压抑	-10315
去问	-10316
参考	-10317
又说	-10318
发难	-10319
取义	-10320
变态	-10321
变的	-10322
古往	-10323
叫来	-10324
叫苦	-10325
可灼	-10326
各国	-10327
吉思	-10328
名垂	-10329
名臣	-10330
君臣	-10331
告发	-10332
响起	-10333
哪有	-10334
善类	-10335
喜剧	-10336
喝茶	-10337
四路	-10338
回信	-10339
回合	-10340
回府	-10341
回顾	-10342
围困	-10343
国防	-10344
图个	-10345
在下	-10346
在天	-10347
在鼓	-10348
堡垒	-10349
壮大	-10350
复立	-10351
多彩	-10352
多说	-10353
多邦	-10354
够本	-10355
大叫	-10356
大清	-10357
天灾	-10358
太尉	-10359
太少	-10360
夫妻	-10361
头号	-10362
头晕	-10363
夹击	-10364
夺取	-10365
奥秘	-10366
女婿	-10367
女性	-10368
如愿	-10369
如若	-10370
妄为	-10371
委以	-10372
威逼	-10373
学识	-10374
学过	-10375
宁海	-10376
官兵	-10377
宝贝	-10378
实事	-10379
实惠	-10380
客套	-10381
宦海	-10382
家康	-10383
宽容	-10384
寂寞	-10385
对准	-10386
对面	-10387
寻死	-10388
导演	-10389
小学	-10390
少的	-10391
少见	-10392
就越	-10393
尽头	-10394
居民	-10395
属实	-10396
屡次	-10397
屡败	-10398
已被	-10399
帷幄	-10400
常人	-10401
常识	-10402
干休	-10403
应予	-10404
应当	-10405
开场	-10406
开放	-10407
引用	-10408
强壮	-10409
强者	-10410
彼此	-10411
很近	-10412
得水	-10413
忍了	-10414
忧虑	-10415
快点	-10416
总计	-10417
患难	-10418
惊叹	-10419
想了	-10420
愧疚	-10421
成仙	-10422
我吧	-10423
我等	-10424
战况	-10425
战果	-10426
所能	-10427
手足	-10428
才华	-10429
执著	-10430
扫地	-10431
找茬	-10432
抄写	-10433
把我	-10434
把火	-10435
抓阄	-10436
抗议	-10437
抢救	-10438
报效	-10439
拉倒	-10440
拼了	-10441
挂了	-10442
挣扎	-10443
捞到	-10444
排场	-10445
排行	-10446
排辈	-10447
探讨	-10448
措手	-10449
掺和	-10450
插图	-10451
揣着	-10452
搞法	-10453
支援	-10454
政坛	-10455
敌船	-10456
教诲	-10457
数年	-10458
数的	-10459
新一	-10460
新任	-10461
新兵	-10462
新鲜	-10463
族的	-10464
旗牌	-10465
无从	-10466
无恙	-10467
无恶	-10468
无措	-10469
无言	-10470
无足	-10471
昌平	-10472
昔日	-10473
是你	-10474
是先	-10475
是同	-10476
是死	-10477
是活	-10478
普胜	-10479
暗语	-10480
有心	-10481
有志	-10482
有生	-10483
有病	-10484
服了	-10485
期盼	-10486
木棍	-10487
本身	-10488
朱五	-10489
李世	-10490
李宁	-10491
来打	-10492
标志	-10493
桌上	-10494
梁山	-10495
棘手	-10496
横屿	-10497
正值	-10498
正经	-10499
此去	-10500
死活	-10501
残敌	-10502
残疾	-10503
比你	-10504
比赛	-10505
民的	-10506
江渊	-10507
污吏	-10508
沟河	-10509
没收	-10510
河堤	-10511
活像	-10512
海西	-10513
深山	-10514
深得	-10515
清河	-10516
源自	-10517
满脸	-10518
漂亮	-10519
点的	-10520
烂的	-10521
烦恼	-10522
热烈	-10523
燃烧	-10524
牛皮	-10525
牡丹	-10526
特种	-10527
犯的	-10528
狂奔	-10529
理睬	-10530
甘休	-10531
生机	-10532
生理	-10533
生祠	-10534
用品	-10535
田地	-10536
畏缩	-10537
登城	-10538
登陆	-10539
白圭	-10540
百户	-10541
的也	-10542
的行	-10543
皇亲	-10544
监军	-10545
监督	-10546
盖章	-10547
目中	-10548
直奔	-10549
相见	-10550
省了	-10551
省油	-10552
看完	-10553
看清	-10554
真话	-10555
着头	-10556
砍头	-10557
确凿	-10558
碍于	-10559
磨刀	-10560
磨难	-10561
示弱	-10562
祸首	-10563
称之	-10564
称赞	-10565
稍微	-10566
空虚	-10567
第六	-10568
签了	-10569
算了	-10570
管你	-10571
类型	-10572
精于	-10573
累得	-10574
纵马	-10575
绍兴	-10576
绝笔	-10577
绰绰	-10578
绳子	-10579
缠绕	-10580
罪恶	-10581
罪魁	-10582
翻了	-10583
而要	-10584
而降	-10585
耽误	-10586
肃宁	-10587
胜过	-10588
臣子	-10589
自得	-10590
致的	-10591
艰巨	-10592
芝龙	-10593
花钱	-10594
荒谬	-10595
莱州	-10596
获胜	-10597
菜刀	-10598
营地	-10599
虚传	-10600
被押	-10601
被逼	-10602
西王	-10603
要害	-10604
视察	-10605
解元	-10606
计策	-10607
认错	-10608
讨饭	-10609
训话	-10610
论资	-10611
评语	-10612
说情	-10613
请教	-10614
诸多	-10615
谭纶	-10616
谷城	-10617
象征	-10618
质问	-10619
贵州	-10620
贵的	-10621
赈灾	-10622
走吧	-10623
踏上	-10624
身世	-10625
轻蔑	-10626
输得	-10627
过着	-10628
运筹	-10629
还行	-10630
这几	-10631
这对	-10632
进出	-10633
进贡	-10634
连累	-10635
追赶	-10636
逃到	-10637
透露	-10638
通的	-10639
造成	-10640
遭殃	-10641
酒宴	-10642
重演	-10643
重病	-10644
钦佩	-10645
铲除	-10646
镇压	-10647
镇抚	-10648
长城	-10649
长相	-10650
闷棍	-10651
闹剧	-10652
闻风	-10653
阮浪	-10654
阴阳	-10655
阿济	-10656
附体	-10657
陈氏	-10658
除非	-10659
陪同	-10660
隐蔽	-10661
难民	-10662
雪恨	-10663
震天	-10664
韩敬	-10665
顶峰	-10666
领会	-10667
领兵	-10668
颇为	-10669
风水	-10670
首的	-10671
马车	-10672
驻军	-10673
驻地	-10674
高声	-10675
魂不	-10676
魔鬼	-10677
黄观	-10678
黄龙	-10679
▁上天	-10680
▁似乎	-10681
▁几年	-10682
▁基于	-10683
▁当他	-10684
▁日本	-10685
▁正在	-10686
▁正当	-10687
▁综观	-10688
▁而更	-10689
▁胜利	-10690
▁这两	-10691
▁这回	-10692
▁问题	-10693
一路上	-10694
一路走	-10695
三年前	-10696
三百年	-10697
上面的	-10698
不听话	-10699
不必说	-10700
不服气	-10701
不简单	-10702
不能不	-10703
不靠谱	-10704
与明军	-10705
与自己	-10706
为他们	-10707
为其难	-10708
也不算	-10709
也不错	-10710
也没错	-10711
了一半	-10712
了一惊	-10713
了一番	-10714
了他们	-10715
二愣子	-10716
五千两	-10717
他下令	-10718
他们在	-10719
他怎么	-10720
他正在	-10721
他都要	-10722
他除了	-10723
以来的	-10724
伍知府	-10725
传弟子	-10726
伴随着	-10727
但事情	-10728
你就会	-10729
你要是	-10730
使出了	-10731
信任他	-10732
信任的	-10733
倪文俊	-10734
偏偏就	-10735
兄弟你	-10736
全世界	-10737
六月十	-10738
再加上	-10739
准确地	-10740
击溃了	-10741
刘一璟	-10742
刘瑾的	-10743
刘福通	-10744
到自己	-10745
制定了	-10746
前进的	-10747
北元的	-10748
北军的	-10749
十三个	-10750
南直隶	-10751
危险的	-10752
却是一	-10753
却是不	-10754
却迟迟	-10755
原本是	-10756
去找了	-10757
发怒了	-10758
古往今	-10759
只需要	-10760
可怜的	-10761
可算是	-10762
吉思汗	-10763
后宫的	-10764
吴中行	-10765
和士兵	-10766
和谢迁	-10767
哈达部	-10768
哪里去	-10769
喜欢玩	-10770
回老家	-10771
固然是	-10772
在北京	-10773
在南京	-10774
在城下	-10775
在工作	-10776
在我的	-10777
在经过	-10778
在边界	-10779
在那些	-10780
坚固的	-10781
坚定地	-10782
大炮的	-10783
大量的	-10784
天上掉	-10785
好消息	-10786
如果再	-10787
如果有	-10788
如果说	-10789
定主意	-10790
对朱棣	-10791
少有的	-10792
就不会	-10793
就算不	-10794
差点没	-10795
干起了	-10796
张皇后	-10797
影响了	-10798
彻底地	-10799
很多事	-10800
很早就	-10801
得太远	-10802
忽略了	-10803
怎么打	-10804
怪不得	-10805
意味深	-10806
感动了	-10807
成功者	-10808
我们就	-10809
所以当	-10810
手无策	-10811
把他当	-10812
抢劫的	-10813
挡住了	-10814
挽救了	-10815
换了一	-10816
接受的	-10817
接着干	-10818
摆脱了	-10819
攻击的	-10820
故意的	-10821
文章中	-10822
文选司	-10823
旁观者	-10824
旁边的	-10825
无比的	-10826
是一次	-10827
是不可	-10828
是我的	-10829
是明朝	-10830
智慧和	-10831
最喜欢	-10832
最让人	-10833
有多大	-10834
有的是	-10835
朋友的	-10836
本人也	-10837
杀头的	-10838
来不及	-10839
来概括	-10840
来这么	-10841
此三人	-10842
死在了	-10843
每一天	-10844
水浒传	-10845
激怒了	-10846
点东西	-10847
然后又	-10848
燕大侠	-10849
牢房里	-10850
王先生	-10851
王大臣	-10852
王朝的	-10853
生活的	-10854
由皇帝	-10855
白沟河	-10856
的事件	-10857
的兄弟	-10858
的农民	-10859
的小人	-10860
的意见	-10861
的教育	-10862
的第二	-10863
皦秀才	-10864
直到他	-10865
真是个	-10866
积极性	-10867
立下了	-10868
笑了笑	-10869
第三个	-10870
第四个	-10871
级干部	-10872
纯粹的	-10873
经历过	-10874
老太太	-10875
考不上	-10876
而他们	-10877
而徐阶	-10878
而此时	-10879
耐心地	-10880
自己了	-10881
自己和	-10882
自己那	-10883
自然有	-10884
艰苦的	-10885
英明的	-10886
行动的	-10887
要实现	-10888
解脱了	-10889
认识了	-10890
说清楚	-10891
说穿了	-10892
贺人龙	-10893
跟着他	-10894
过了头	-10895
还特别	-10896
还真是	-10897
这两人	-10898
这么快	-10899
这几位	-10900
送给了	-10901
造反了	-10902
道回府	-10903
道路上	-10904
那是一	-10905
那是要	-10906
郑重地	-10907
问题上	-10908
顾不上	-10909
马三保	-10910
马上就	-10911
高先生	-10912
(146	-10913
(147	-10914
(150	-10915
▁一切都	-10916
▁一年后	-10917
▁为保证	-10918
▁他已经	-10919
▁十一月	-10920
▁如果要	-10921
▁很多人	-10922
▁所有的	-10923
▁有一次	-10924
▁李景隆	-10925
▁王保保	-10926
▁看起来	-10927
▁赵率教	-10928
▁还没等	-10929
▁这也是	-10930
▁魏公公	-10931
一个多月	-10932
一定会有	-10933
一心一意	-10934
一气之下	-10935
一般来说	-10936
一触即溃	-10937
万不得已	-10938
不但可以	-10939
不幸的是	-10940
不懈努力	-10941
不是没有	-10942
丰功伟绩	-10943
为什么不	-10944
乃尔不花	-10945
也不愿意	-10946
也算是个	-10947
了一件事	-10948
人民群众	-10949
他又一次	-10950
他成为了	-10951
他的子孙	-10952
但问题是	-10953
作为一名	-10954
偏偏就是	-10955
冥思苦想	-10956
刀光剑影	-10957
分析一下	-10958
勉为其难	-10959
十分兴奋	-10960
十分重要	-10961
可以说是	-10962
叹了口气	-10963
吏部侍郎	-10964
吓得不行	-10965
周围的人	-10966
和常遇春	-10967
商量对策	-10968
因为只有	-10969
团团围住	-10970
基本算是	-10971
够意思的	-10972
大大出乎	-10973
大家心里	-10974
夺门之变	-10975
如此下去	-10976
实际情况	-10977
对朱元璋	-10978
崇祯元年	-10979
已经到了	-10980
并不起眼	-10981
张先生的	-10982
彻底改变	-10983
彻底消灭	-10984
往常一样	-10985
徐有贞的	-10986
德川家康	-10987
意义上的	-10988
成吉思汗	-10989
我们这个	-10990
战无不胜	-10991
手足无措	-10992
打小报告	-10993
打落水狗	-10994
报仇雪恨	-10995
接到命令	-10996
措手不及	-10997
摆在眼前	-10998
无人理会	-10999
无恶不作	-11000
无论怎么	-11001
明代规定	-11002
明白自己	-11003
是个什么	-11004
是很难的	-11005
是真正的	-11006
更进一步	-11007
月十七日	-11008
有了一个	-11009
朱见深的	-11010
束手无策	-11011
正是他的	-11012
武林高手	-11013
民族英雄	-11014
沉默寡言	-11015
浙江巡抚	-11016
的士兵们	-11017
的帮助下	-11018
的张居正	-11019
的结果是	-11020
确实没有	-11021
礼部侍郎	-11022
终于有了	-11023
给他一个	-11024
绰绰有余	-11025
罪魁祸首	-11026
自不必说	-11027
自己动手	-11028
自然死亡	-11029
衣食无忧	-11030
觉得自己	-11031
言官大臣	-11032
让朱元璋	-11033
许多大臣	-11034
论资排辈	-11035
说出了他	-11036
豁出去了	-11037
贪官污吏	-11038
辽东经略	-11039
运筹帷幄	-11040
还在后头	-11041
这个职务	-11042
这个说法	-11043
这些事情	-11044
这场斗争	-11045
这才明白	-11046
这是一次	-11047
这样做的	-11048
这样的话	-11049
进入朝廷	-11050
那个时候	-11051
都是他的	-11052
采取行动	-11053
长时间的	-11054
顶不住了	-11055
飞扬跋扈	-11056
▁作为一个	-11057
▁嘉靖四十	-11058
▁天启五年	-11059
▁毫无疑问	-11060
▁然而就在	-11061
▁这是一句	-11062
一个小小的	-11063
不了多久了	-11064
从来都不是	-11065
他的将领们	-11066
但奇怪的是	-11067
充分发挥了	-11068
变成了一个	-11069
告诉了我们	-11070
在他的手中	-11071
在他的面前	-11072
大明王朝的	-11073
完成的任务	-11074
很大程度上	-11075
拉兄弟一把	-11076
是有道理的	-11077
更不用说了	-11078
皇帝的信任	-11079
自己的亲信	-11080
该怎么办呢	-11081
还没来得及	-11082
这些人都是	-11083
这件事情上	-11084
锦衣卫指挥	-11085
(1629)	-11086
▁所有的人都	-11087
▁正统十四年	-11088
▁这个世界上	-11089
从哪个角度看	-11090
到底想干什么	-11091
眼前的这个人	-11092
讽刺意味的是	-11093
说出了自己的	-11094
▁如	-11095
▁它	-11096
▁徐	-11097
一仗	-11098
一塌	-11099
一帮	-11100
一扫	-11101
一盘	-11102
一箭	-11103
一统	-11104
一通	-11105
万年	-11106
上山	-11107
上当	-11108
上过	-11109
上马	-11110
下马	-11111
不仅	-11112
不外	-11113
不忘	-11114
不改	-11115
不稳	-11116
不论	-11117
不贪	-11118
不速	-11119
专权	-11120
业业	-11121
东城	-11122
东昌	-11123
两下	-11124
丧胆	-11125
临死	-11126
为敌	-11127
主题	-11128
之众	-11129
之臣	-11130
乌烟	-11131
九鬼	-11132
也无	-11133
书信	-11134
乱的	-11135
二岁	-11136
云云	-11137
五位	-11138
产业	-11139
亲军	-11140
亲切	-11141
人说	-11142
仁厚	-11143
仁慈	-11144
从何	-11145
从政	-11146
从没	-11147
他给	-11148
以一	-11149
众目	-11150
伙伴	-11151
会被	-11152
伟人	-11153
传记	-11154
传颂	-11155
估算	-11156
何在	-11157
何等	-11158
侍讲	-11159
依照	-11160
侦查	-11161
侯恂	-11162
便把	-11163
保定	-11164
修养	-11165
候选	-11166
借助	-11167
偏要	-11168
偏逢	-11169
做主	-11170
像是	-11171
兄难	-11172
免死	-11173
免除	-11174
党争	-11175
全罗	-11176
八万	-11177
公主	-11178
关闭	-11179
兵马	-11180
其不	-11181
再找	-11182
冒烟	-11183
写就	-11184
写着	-11185
军功	-11186
军务	-11187
军士	-11188
冲到	-11189
冲进	-11190
几近	-11191
出众	-11192
出关	-11193
出没	-11194
击毙	-11195
分裂	-11196
划分	-11197
刘大	-11198
则天	-11199
利的	-11200
别有	-11201
到这	-11202
制止	-11203
刷子	-11204
刻意	-11205
前列	-11206
前无	-11207
力竭	-11208
劝告	-11209
功底	-11210
加深	-11211
势众	-11212
勤王	-11213
化的	-11214
匹夫	-11215
医术	-11216
医院	-11217
华亭	-11218
华门	-11219
单单	-11220
南下	-11221
印度	-11222
即日	-11223
历任	-11224
原职	-11225
县官	-11226
又来	-11227
友善	-11228
友谊	-11229
反面	-11230
发行	-11231
发觉	-11232
发誓	-11233
受人	-11234
受挫	-11235
受益	-11236
受苦	-11237
古今	-11238
句号	-11239
只差	-11240
只眼	-11241
只顾	-11242
可喜	-11243
可守	-11244
可恶	-11245
史实	-11246
同仁	-11247
同知	-11248
名列	-11249
后撤	-11250
后继	-11251
向前	-11252
吓人	-11253
含笑	-11254
听得	-11255
听着	-11256
听计	-11257
吸取	-11258
告了	-11259
周观	-11260
和人	-11261
哀叹	-11262
哱拜	-11263
唐朝	-11264
嘉隆	-11265
嘲笑	-11266
回忆	-11267
回望	-11268
国之	-11269
国戚	-11270
在你	-11271
地带	-11272
地震	-11273
坏话	-11274
坚城	-11275
坚毅	-11276
埋葬	-11277
基地	-11278
堆里	-11279
声名	-11280
外围	-11281
外快	-11282
多名	-11283
多才	-11284
大业	-11285
大会	-11286
大力	-11287
大器	-11288
大开	-11289
大张	-11290
大约	-11291
天命	-11292
天色	-11293
太低	-11294
失落	-11295
失误	-11296
头土	-11297
夺位	-11298
奔着	-11299
好说	-11300
妃嫔	-11301
妥善	-11302
姓朱	-11303
孔子	-11304
孙鑨	-11305
孤灯	-11306
宁前	-11307
守孝	-11308
官们	-11309
官小	-11310
官的	-11311
官运	-11312
审官	-11313
审问	-11314
家丁	-11315
对比	-11316
封信	-11317
封的	-11318
小船	-11319
就出	-11320
就跟	-11321
尽管	-11322
局长	-11323
居住	-11324
屠城	-11325
岑港	-11326
左翼	-11327
已去	-11328
已尽	-11329
已有	-11330
已达	-11331
常常	-11332
干起	-11333
应州	-11334
应试	-11335
废掉	-11336
开的	-11337
引人	-11338
当真	-11339
当着	-11340
影子	-11341
往来	-11342
征途	-11343
待人	-11344
很低	-11345
很深	-11346
心得	-11347
心怀	-11348
心态	-11349
必先	-11350
必经	-11351
必能	-11352
忙活	-11353
忙脚	-11354
忽必	-11355
怀孕	-11356
急报	-11357
恶行	-11358
悲伤	-11359
悲愤	-11360
悲观	-11361
惨烈	-11362
想把	-11363
愉快	-11364
成分	-11365
成名	-11366
我了	-11367
战士	-11368
截了	-11369
所作	-11370
所学	-11371
打动	-11372
打垮	-11373
打好	-11374
扮演	-11375
批了	-11376
抄起	-11377
把汉	-11378
抓到	-11379
抚州	-11380
抬头	-11381
拉人	-11382
拍拍	-11383
拍案	-11384
拖延	-11385
招兵	-11386
招募	-11387
拿了	-11388
拿来	-11389
指标	-11390
探访	-11391
接连	-11392
推崇	-11393
掩盖	-11394
揭晓	-11395
援助	-11396
搞出	-11397
摇了	-11398
摧毁	-11399
摸黑	-11400
撤出	-11401
攀龙	-11402
收场	-11403
收缩	-11404
改正	-11405
放走	-11406
敌众	-11407
救火	-11408
教书	-11409
教师	-11410
整队	-11411
文稿	-11412
文震	-11413
斗狠	-11414
施工	-11415
无与	-11416
无权	-11417
无缘	-11418
无路	-11419
明君	-11420
星期	-11421
春派	-11422
春药	-11423
是王	-11424
显现	-11425
普天	-11426
智多	-11427
曙光	-11428
最早	-11429
服侍	-11430
本是	-11431
本钱	-11432
朱寘	-11433
来个	-11434
来意	-11435
来抢	-11436
来救	-11437
杨松	-11438
杰出	-11439
极快	-11440
构成	-11441
查了	-11442
查办	-11443
栋梁	-11444
梁储	-11445
梦阳	-11446
检举	-11447
榜题	-11448
欢呼	-11449
欣然	-11450
欺压	-11451
正中	-11452
歧视	-11453
死光	-11454
殉国	-11455
段话	-11456
毕自	-11457
气馁	-11458
水路	-11459
水陆	-11460
汹汹	-11461
沉寂	-11462
没谱	-11463
活的	-11464
流浪	-11465
海峡	-11466
混的	-11467
混过	-11468
清净	-11469
清晨	-11470
溜号	-11471
满天	-11472
满志	-11473
漫天	-11474
潘忠	-11475
火海	-11476
火焰	-11477
火耗	-11478
炮火	-11479
炸药	-11480
照常	-11481
照料	-11482
爬墙	-11483
爱国	-11484
牛的	-11485
特地	-11486
狼筅	-11487
猫岛	-11488
王氏	-11489
理他	-11490
用功	-11491
用在	-11492
留情	-11493
病了	-11494
痛快	-11495
登场	-11496
百里	-11497
的学	-11498
的打	-11499
盛况	-11500
盾牌	-11501
看的	-11502
眼花	-11503
着手	-11504
睽睽	-11505
瞄准	-11506
瞠目	-11507
瞿能	-11508
破格	-11509
确认	-11510
碧蹄	-11511
祖制	-11512
私仇	-11513
私房	-11514
穷人	-11515
素的	-11516
紧了	-11517
纨绔	-11518
终身	-11519
给她	-11520
美好	-11521
群人	-11522
老本	-11523
考卷	-11524
而下	-11525
而更	-11526
耳边	-11527
聊生	-11528
联盟	-11529
肉搏	-11530
自发	-11531
自在	-11532
自如	-11533
致富	-11534
色的	-11535
苦思	-11536
荆州	-11537
莫属	-11538
落了	-11539
落入	-11540
落荒	-11541
蒋冕	-11542
蠢人	-11543
行人	-11544
行径	-11545
表彰	-11546
袁州	-11547
襄王	-11548
西瓜	-11549
要整	-11550
要真	-11551
要论	-11552
角落	-11553
言行	-11554
警觉	-11555
认死	-11556
认账	-11557
记性	-11558
设下	-11559
词语	-11560
诱敌	-11561
说不	-11562
请假	-11563
请客	-11564
谁呢	-11565
调配	-11566
谈了	-11567
谕旨	-11568
谣言	-11569
豪华	-11570
贫农	-11571
赏钱	-11572
赏银	-11573
赔本	-11574
赢得	-11575
走狗	-11576
赴任	-11577
起居	-11578
跑的	-11579
跑腿	-11580
跟人	-11581
蹇义	-11582
轮流	-11583
轰烈	-11584
过市	-11585
过期	-11586
还管	-11587
这天	-11588
这根	-11589
进退	-11590
远比	-11591
连声	-11592
追寻	-11593
退守	-11594
退缩	-11595
送往	-11596
遍体	-11597
避免	-11598
那张	-11599
那条	-11600
那道	-11601
都司	-11602
都快	-11603
酷刑	-11604
采纳	-11605
野兽	-11606
铁钉	-11607
银行	-11608
长安	-11609
长枪	-11610
门关	-11611
阁臣	-11612
阔的	-11613
队列	-11614
防区	-11615
阵地	-11616
陪着	-11617
隐瞒	-11618
难听	-11619
难堪	-11620
雄心	-11621
霸业	-11622
静闻	-11623
面试	-11624
鞭法	-11625
顾璘	-11626
颜色	-11627
饮酒	-11628
骂过	-11629
骑着	-11630
高仪	-11631
高邮	-11632
麦加	-11633
鼻涕	-11634
齐备	-11635
▁不但	-11636
▁会议	-11637
▁原因	-11638
▁反正	-11639
▁可怜	-11640
▁唯一	-11641
▁宁远	-11642
▁局势	-11643
▁建文	-11644
▁有了	-11645
▁朱由	-11646
▁第五	-11647
一些人	-11648
一切的	-11649
一去不	-11650
一封信	-11651
一本书	-11652
一根筋	-11653
一步步	-11654
一死战	-11655
一种是	-11656
万历兄	-11657
万历的	-11658
三个字	-11659
上千人	-11660
上奏折	-11661
上来说	-11662
下了水	-11663
不会有	-11664
不停的	-11665
不够的	-11666
不太好	-11667
不对劲	-11668
不远了	-11669
不速之	-11670
不顺眼	-11671
与明朝	-11672
东南亚	-11673
严世藩	-11674
严格的	-11675
为己任	-11676
主考官	-11677
之一的	-11678
乌烟瘴	-11679
也不大	-11680
也不太	-11681
也从未	-11682
也就此	-11683
也就能	-11684
也明白	-11685
也未必	-11686
也被他	-11687
了一座	-11688
争国本	-11689
二十余	-11690
二十岁	-11691
人太多	-11692
人性的	-11693
什么是	-11694
仍然是	-11695
从七品	-11696
从五品	-11697
从小就	-11698
他一同	-11699
他不再	-11700
他们还	-11701
他希望	-11702
他手下	-11703
他才能	-11704
他选择	-11705
他都是	-11706
以一种	-11707
以上的	-11708
以天下	-11709
以骑兵	-11710
估计也	-11711
你们要	-11712
你还要	-11713
依不饶	-11714
俺答的	-11715
做不到	-11716
做他的	-11717
兄难弟	-11718
六万人	-11719
六年的	-11720
共同的	-11721
其余的	-11722
写了一	-11723
写出了	-11724
军事实	-11725
军事家	-11726
军军长	-11727
几百个	-11728
出来后	-11729
列出了	-11730
刘伯温	-11731
刘公公	-11732
刘大夏	-11733
到南京	-11734
到辽东	-11735
十个人	-11736
升了官	-11737
占领了	-11738
却也是	-11739
却并未	-11740
却总是	-11741
原先的	-11742
又如何	-11743
双方都	-11744
发挥了	-11745
只有两	-11746
只有他	-11747
只能在	-11748
只要是	-11749
同时也	-11750
听不懂	-11751
听计从	-11752
吸取了	-11753
周观政	-11754
和严嵩	-11755
和明朝	-11756
和那些	-11757
啕大哭	-11758
四万人	-11759
因为她	-11760
土匪们	-11761
土特产	-11762
土财主	-11763
在内阁	-11764
在里面	-11765
坐上了	-11766
城里的	-11767
基本是	-11768
大概是	-11769
太监们	-11770
好好干	-11771
如果他	-11772
宁王的	-11773
客观的	-11774
害怕了	-11775
对着干	-11776
封奏折	-11777
将永远	-11778
小儿科	-11779
就会被	-11780
就有了	-11781
就有人	-11782
就等着	-11783
就那么	-11784
居然敢	-11785
山再起	-11786
左顺门	-11787
并不算	-11788
应得的	-11789
庞然大	-11790
张永的	-11791
张首辅	-11792
当他的	-11793
当地人	-11794
很多次	-11795
很好的	-11796
很深的	-11797
得意的	-11798
必定有	-11799
必要的	-11800
忙脚乱	-11801
恰当的	-11802
成一团	-11803
成一片	-11804
我可以	-11805
我自己	-11806
或者是	-11807
战利品	-11808
戴德孺	-11809
才明白	-11810
打不死	-11811
打乱了	-11812
找不着	-11813
拉下水	-11814
拿不定	-11815
拿起了	-11816
指望了	-11817
排第二	-11818
提供了	-11819
搞关系	-11820
收回了	-11821
收起了	-11822
敢死队	-11823
文震孟	-11824
无人敢	-11825
无奈地	-11826
无足轻	-11827
既不能	-11828
日子里	-11829
是个好	-11830
是应该	-11831
是怎样	-11832
是永远	-11833
是那个	-11834
更是不	-11835
曹总兵	-11836
有个人	-11837
有兴趣	-11838
有这个	-11839
本来就	-11840
朱五四	-11841
朱棣在	-11842
朱棣就	-11843
李世民	-11844
李可灼	-11845
李成桂	-11846
此二人	-11847
武则天	-11848
比他还	-11849
民军的	-11850
江东之	-11851
汪先生	-11852
没事找	-11853
没有死	-11854
没有用	-11855
满意了	-11856
漫长的	-11857
灰头土	-11858
熟悉的	-11859
爆发了	-11860
犯不着	-11861
犹豫了	-11862
玩花样	-11863
生意人	-11864
生涯中	-11865
用火枪	-11866
留在了	-11867
百年后	-11868
的下落	-11869
的也先	-11870
的事迹	-11871
的于谦	-11872
的作者	-11873
的信念	-11874
的口气	-11875
的小官	-11876
的手段	-11877
的景象	-11878
的朝代	-11879
的石亨	-11880
的称呼	-11881
的童年	-11882
的蒙古	-11883
的表现	-11884
的要求	-11885
的谈话	-11886
的选择	-11887
皇帝和	-11888
直截了	-11889
相对于	-11890
相当好	-11891
矛盾的	-11892
破脑袋	-11893
硬骨头	-11894
碧蹄馆	-11895
称之为	-11896
第三次	-11897
第二种	-11898
终究是	-11899
结果是	-11900
结果被	-11901
给了个	-11902
给你们	-11903
继任者	-11904
继承了	-11905
继承者	-11906
老师的	-11907
而现在	-11908
脱古思	-11909
自以为	-11910
自己人	-11911
自己都	-11912
菜市场	-11913
董一元	-11914
蒙古军	-11915
蒙在鼓	-11916
装孙子	-11917
解开了	-11918
设计的	-11919
识时务	-11920
读过书	-11921
赶回家	-11922
轰轰烈	-11923
辈子的	-11924
还曾经	-11925
这么想	-11926
这可是	-11927
这场戏	-11928
这次他	-11929
这段话	-11930
连夜雨	-11931
退休了	-11932
送走了	-11933
那句话	-11934
那就不	-11935
邪恶的	-11936
都不如	-11937
都没了	-11938
重大的	-11939
金榜题	-11940
镇抚司	-11941
闹事的	-11942
隐藏在	-11943
难道你	-11944
面前的	-11945
颇有点	-11946
馊主意	-11947
骑兵对	-11948
▁建文帝	-11949
▁当年的	-11950
▁我说过	-11951
▁所以我	-11952
▁方孝孺	-11953
▁无论是	-11954
▁看上去	-11955
▁而这位	-11956
▁这似乎	-11957
▁陈奇瑜	-11958
一千余人	-11959
一来二去	-11960
万贵妃的	-11961
下有金字	-11962
不出所料	-11963
不同凡响	-11964
不在话下	-11965
不是为了	-11966
不是因为	-11967
东厂提督	-11968
两个人的	-11969
为什么呢	-11970
主力部队	-11971
之所以能	-11972
九死一生	-11973
九鬼嘉隆	-11974
也越来越	-11975
争取时间	-11976
二十年的	-11977
于是大家	-11978
五千余人	-11979
介绍过了	-11980
从头到尾	-11981
他只知道	-11982
他很明白	-11983
他找来了	-11984
他是皇帝	-11985
他的同党	-11986
他的意料	-11987
他的目标	-11988
他的脑袋	-11989
他的这位	-11990
代表人物	-11991
众目睽睽	-11992
优秀将领	-11993
但朱元璋	-11994
但这一切	-11995
作战勇猛	-11996
你的儿子	-11997
值得一提	-11998
做了一件	-11999
元朝政府	-12000
光杆司令	-12001
兢兢业业	-12002
六部尚书	-12003
军事天赋	-12004
决一死战	-12005
几百年前	-12006
刑部主事	-12007
到了京城	-12008
前面说过	-12009
北京城下	-12010
十分了解	-12011
千万不要	-12012
占据优势	-12013
又回到了	-12014
取而代之	-12015
史书上的	-12016
吃惊的是	-12017
君临天下	-12018
嘉靖皇帝	-12019
四大贝勒	-12020
回了老家	-12021
因为皇帝	-12022
在后来的	-12023
处理意见	-12024
处理政务	-12025
多了去了	-12026
大张旗鼓	-12027
大明江山	-12028
大明皇帝	-12029
大致可以	-12030
大获全胜	-12031
天启七年	-12032
好吃好喝	-12033
始终没有	-12034
实在不好	-12035
客气客气	-12036
就是为了	-12037
就是如此	-12038
崇祯而言	-12039
左冲右突	-12040
已经成为	-12041
平定叛乱	-12042
庞然大物	-12043
很久以前	-12044
很多事情	-12045
很够意思	-12046
惊天动地	-12047
成为他的	-12048
成功人士	-12049
手忙脚乱	-12050
打探消息	-12051
找到一个	-12052
拉帮结派	-12053
招摇过市	-12054
摇了摇头	-12055
数万大军	-12056
整个明代	-12057
无与伦比	-12058
无济于事	-12059
时不时还	-12060
是不对的	-12061
是可以的	-12062
是张居正	-12063
更多的人	-12064
最好时机	-12065
最能打的	-12066
有多少人	-12067
有着一个	-12068
朝廷上下	-12069
本来就是	-12070
朱元璋了	-12071
朱棣同志	-12072
正月二十	-12073
死路一条	-12074
每次打仗	-12075
比较简单	-12076
毫无动静	-12077
气得不行	-12078
没有儿子	-12079
没有能够	-12080
没有这个	-12081
流传下来	-12082
燕王朱棣	-12083
率领军队	-12084
率领大军	-12085
王锡爵的	-12086
的人已经	-12087
皇亲国戚	-12088
皇太极的	-12089
省油的灯	-12090
看过之后	-12091
突然发现	-12092
竟然还敢	-12093
竟然还有	-12094
竟然还要	-12095
第一名将	-12096
等待时机	-12097
纷纷上书	-12098
苦苦支撑	-12099
获得胜利	-12100
落荒而逃	-12101
表示同意	-12102
被拉出去	-12103
被朱元璋	-12104
要命的是	-12105
言听计从	-12106
誓不罢休	-12107
趁此机会	-12108
踌躇满志	-12109
身体不好	-12110
软硬不吃	-12111
还是很有	-12112
这个职位	-12113
这是一场	-12114
连自己的	-12115
通俗点说	-12116
那么多年	-12117
都不知道	-12118
镇定自若	-12119
随即下令	-12120
难兄难弟	-12121
魂不附体	-12122
▁在他看来	-12123
▁在当时的	-12124
▁天启七年	-12125
▁这个问题	-12126
▁除此之外	-12127
一次又一次	-12128
万万想不到	-12129
也不是什么	-12130
了他的一生	-12131
他们的名字	-12132
他将在这里	-12133
他没有能够	-12134
他的名字叫	-12135
偏逢连夜雨	-12136
准确的判断	-12137
凭借自己的	-12138
出人意料的	-12139
却没有想到	-12140
发生的一切	-12141
可这位仁兄	-12142
听到这句话	-12143
在这个时候	-12144
开始了他的	-12145
张太皇太后	-12146
必胜的把握	-12147
惊天动地的	-12148
成为了一名	-12149
拿不定主意	-12150
是个明白人	-12151
是个聪明人	-12152
最后的时刻	-12153
朱祁镇先生	-12154
没有人可以	-12155
的军事行动	-12156
的努尔哈赤	-12157
皇帝陛下的	-12158
相信自己的	-12159
第一号人物	-12160
终于明白了	-12161
终于来到了	-12162
绝不仅仅是	-12163
自己的命运	-12164
自己的哥哥	-12165
自己的这个	-12166
这两个人的	-12167
这两个地方	-12168
重量级人物	-12169
错误的判断	-12170
(1625)	-12171
事实并非如此	-12172
他的这一举动	-12173
几十年如一日	-12174
刚开始的时候	-12175
在这关键时刻	-12176
在这种情况下	-12177
最后的胜利者	-12178
脱古思帖木儿	-12179
让人哭笑不得	-12180
!(	-12181
11	-12182
44	-12183
he	-12184
▁刚	-12185
▁太	-12186
▁戚	-12187
▁杀	-12188
▁答	-12189
一事	-12190
一听	-12191
一圈	-12192
一家	-12193
一敬	-12194
一早	-12195
一概	-12196
一笑	-12197
一篇	-12198
一级	-12199
七荤	-12200
万众	-12201
万般	-12202
三丈	-12203
三行	-12204
上岛	-12205
下雨	-12206
不两	-12207
不分	-12208
不小	-12209
不屈	-12210
不当	-12211
不找	-12212
不放	-12213
不爱	-12214
不等	-12215
不许	-12216
不辍	-12217
不退	-12218
与你	-12219
与否	-12220
专利	-12221
专心	-12222
世爵	-12223
丝马	-12224
丢下	-12225
两名	-12226
严令	-12227
严查	-12228
中人	-12229
中午	-12230
中旨	-12231
中有	-12232
临头	-12233
为你	-12234
为安	-12235
义愤	-12236
之争	-12237
之以	-12238
之物	-12239
乐业	-12240
九百	-12241
也行	-12242
书读	-12243
买了	-12244
买菜	-12245
乱来	-12246
二字	-12247
二流	-12248
五雷	-12249
交了	-12250
交换	-12251
交易	-12252
交流	-12253
亮了	-12254
人命	-12255
人送	-12256
从今	-12257
从无	-12258
他干	-12259
他当	-12260
他放	-12261
仗义	-12262
仙丹	-12263
伊斯	-12264
优美	-12265
伙食	-12266
会上	-12267
会在	-12268
会谈	-12269
会面	-12270
传位	-12271
伤了	-12272
似的	-12273
但最	-12274
体面	-12275
你再	-12276
你好	-12277
你得	-12278
你把	-12279
依附	-12280
便向	-12281
保举	-12282
信号	-12283
修筑	-12284
借用	-12285
倭军	-12286
偏激	-12287
允儒	-12288
光的	-12289
光蛋	-12290
全心	-12291
八素	-12292
公事	-12293
公里	-12294
其事	-12295
其它	-12296
其所	-12297
养性	-12298
再看	-12299
再过	-12300
冒着	-12301
写上	-12302
写字	-12303
军屯	-12304
军心	-12305
冷汗	-12306
冷笑	-12307
凑巧	-12308
几人	-12309
几把	-12310
凡是	-12311
出气	-12312
出访	-12313
出题	-12314
击打	-12315
刀枪	-12316
刀砍	-12317
刚才	-12318
初期	-12319
判了	-12320
利器	-12321
制作	-12322
制服	-12323
剁了	-12324
前军	-12325
前提	-12326
剥夺	-12327
劝阻	-12328
励精	-12329
勒索	-12330
包工	-12331
北部	-12332
匡扶	-12333
十里	-12334
千军	-12335
千年	-12336
协调	-12337
单靠	-12338
南部	-12339
博学	-12340
博罗	-12341
卢忠	-12342
却都	-12343
去吧	-12344
县人	-12345
县太	-12346
参观	-12347
又多	-12348
双全	-12349
发疯	-12350
取决	-12351
受害	-12352
叫喊	-12353
可信	-12354
可说	-12355
吃完	-12356
各项	-12357
合兵	-12358
合格	-12359
同盟	-12360
后无	-12361
后有	-12362
向导	-12363
含着	-12364
听过	-12365
吴襄	-12366
和州	-12367
和谐	-12368
哀嚎	-12369
响亮	-12370
哭了	-12371
善断	-12372
喝斥	-12373
嗓子	-12374
嗜好	-12375
嘲讽	-12376
噩耗	-12377
图治	-12378
在上	-12379
在大	-12380
在某	-12381
地头	-12382
场合	-12383
坐热	-12384
基层	-12385
堪与	-12386
大堆	-12387
大师	-12388
大恨	-12389
大火	-12390
大雪	-12391
天了	-12392
天分	-12393
天完	-12394
天降	-12395
太有	-12396
失利	-12397
头烂	-12398
奇文	-12399
奴隶	-12400
她是	-12401
好勇	-12402
好吧	-12403
如指	-12404
妓院	-12405
委任	-12406
威慑	-12407
威震	-12408
婴儿	-12409
存义	-12410
孙如	-12411
孤儿	-12412
它是	-12413
守备	-12414
安分	-12415
安居	-12416
官也	-12417
官复	-12418
官衔	-12419
定义	-12420
定西	-12421
定远	-12422
实战	-12423
宠臣	-12424
审判	-12425
宽大	-12426
宽恕	-12427
寄托	-12428
寸铁	-12429
对外	-12430
小早	-12431
小路	-12432
尚志	-12433
尝试	-12434
就凭	-12435
就坏	-12436
就放	-12437
就更	-12438
就派	-12439
就说	-12440
就难	-12441
尽责	-12442
屋漏	-12443
展示	-12444
山上	-12445
山里	-12446
岛正	-12447
崇德	-12448
崇拜	-12449
工钱	-12450
巨舰	-12451
差别	-12452
巴巴	-12453
布袋	-12454
帐篷	-12455
干仗	-12456
干到	-12457
干粮	-12458
平台	-12459
平平	-12460
年幼	-12461
并用	-12462
并被	-12463
庐州	-12464
应的	-12465
应酬	-12466
底线	-12467
底细	-12468
廉耻	-12469
开个	-12470
开动	-12471
张信	-12472
张口	-12473
强硬	-12474
归顺	-12475
当面	-12476
徐州	-12477
得胜	-12478
得过	-12479
德州	-12480
心服	-12481
心灰	-12482
心虚	-12483
忌讳	-12484
忠义	-12485
忠厚	-12486
怒斥	-12487
怕事	-12488
性子	-12489
恭敬	-12490
恶人	-12491
恶狼	-12492
悟道	-12493
惊世	-12494
惊人	-12495
想走	-12496
意冷	-12497
意愿	-12498
戏了	-12499
成语	-12500
我能	-12501
我走	-12502
战前	-12503
战阵	-12504
戴罪	-12505
所到	-12506
打勾	-12507
打打	-12508
打猎	-12509
扫荡	-12510
批人	-12511
抚恤	-12512
抢夺	-12513
抽出	-12514
担忧	-12515
拿走	-12516
持有	-12517
持着	-12518
指向	-12519
指定	-12520
指派	-12521
按察	-12522
挑起	-12523
换人	-12524
排名	-12525
推官	-12526
推翻	-12527
提起	-12528
揭发	-12529
揭开	-12530
援朝	-12531
搞倒	-12532
搞的	-12533
搬家	-12534
摆着	-12535
摘录	-12536
撑腰	-12537
撞墙	-12538
操起	-12539
收益	-12540
收集	-12541
放人	-12542
敌方	-12543
教谕	-12544
散发	-12545
散沙	-12546
整了	-12547
文坛	-12548
斩草	-12549
新城	-12550
方位	-12551
无缝	-12552
日后	-12553
日渐	-12554
是来	-12555
显祖	-12556
普遍	-12557
暂住	-12558
最佳	-12559
最初	-12560
最快	-12561
有用	-12562
望着	-12563
未知	-12564
本质	-12565
朱权	-12566
杀我	-12567
杂牌	-12568
李植	-12569
条命	-12570
来讲	-12571
来访	-12572
柔弱	-12573
核心	-12574
栽赃	-12575
棍棒	-12576
欲试	-12577
欺骗	-12578
武功	-12579
死你	-12580
死掉	-12581
死讯	-12582
殊荣	-12583
残兵	-12584
残杀	-12585
毁于	-12586
毛利	-12587
民不	-12588
沟通	-12589
没死	-12590
河套	-12591
沿着	-12592
泛滥	-12593
洪兵	-12594
浆糊	-12595
消遣	-12596
深渊	-12597
混迹	-12598
清算	-12599
渔民	-12600
游记	-12601
演讲	-12602
激情	-12603
火冒	-12604
火把	-12605
灾难	-12606
热衷	-12607
熊熊	-12608
熟读	-12609
爬山	-12610
牌坊	-12611
特权	-12612
犯法	-12613
犯错	-12614
狂妄	-12615
狂言	-12616
狭窄	-12617
狰狞	-12618
狱中	-12619
猖獗	-12620
率先	-12621
王侯	-12622
王艮	-12623
生于	-12624
生光	-12625
生子	-12626
用力	-12627
男女	-12628
留存	-12629
留着	-12630
病逝	-12631
白给	-12632
百人	-12633
的就	-12634
的马	-12635
皇权	-12636
监国	-12637
相干	-12638
看重	-12639
眼界	-12640
着力	-12641
知情	-12642
码头	-12643
破产	-12644
破口	-12645
祖上	-12646
种子	-12647
秦桧	-12648
积累	-12649
究其	-12650
究竟	-12651
穷得	-12652
空子	-12653
空手	-12654
空白	-12655
竹子	-12656
笑脸	-12657
等你	-12658
等候	-12659
箱子	-12660
篡改	-12661
粮饷	-12662
紧闭	-12663
繁荣	-12664
红了	-12665
红巾	-12666
纹丝	-12667
线索	-12668
练过	-12669
终归	-12670
终日	-12671
经史	-12672
结舌	-12673
维垣	-12674
绿江	-12675
编撰	-12676
缜密	-12677
罗性	-12678
罪过	-12679
翅膀	-12680
老鼠	-12681
而复	-12682
耕地	-12683
耿通	-12684
职守	-12685
肚明	-12686
胃口	-12687
胆怯	-12688
背上	-12689
背弃	-12690
能混	-12691
膨胀	-12692
臣等	-12693
自宫	-12694
自尊	-12695
自私	-12696
至极	-12697
航程	-12698
般的	-12699
舰船	-12700
船的	-12701
花了	-12702
苦笑	-12703
萌芽	-12704
营私	-12705
落得	-12706
落空	-12707
葛诚	-12708
虽有	-12709
蛮荒	-12710
血本	-12711
血腥	-12712
补丁	-12713
西边	-12714
要好	-12715
要靠	-12716
讨好	-12717
让步	-12718
讲完	-12719
评论	-12720
评选	-12721
识相	-12722
诚恳	-12723
话题	-12724
该杀	-12725
说服	-12726
调任	-12727
谈谈	-12728
谜底	-12729
谢贵	-12730
负重	-12731
败类	-12732
费力	-12733
赌局	-12734
赣南	-12735
赤膊	-12736
走路	-12737
起床	-12738
起潜	-12739
起火	-12740
越打	-12741
跃跃	-12742
跑掉	-12743
跑步	-12744
身中	-12745
身陷	-12746
辅佐	-12747
辞呈	-12748
辩护	-12749
近似	-12750
还小	-12751
还怕	-12752
还用	-12753
这把	-12754
这篇	-12755
这起	-12756
这部	-12757
这门	-12758
连中	-12759
逃犯	-12760
途径	-12761
逝去	-12762
遗书	-12763
遭受	-12764
邀功	-12765
那吉	-12766
那根	-12767
郑重	-12768
郡主	-12769
里外	-12770
钓鱼	-12771
长年	-12772
阉割	-12773
防弹	-12774
阿姨	-12775
陈洪	-12776
陈词	-12777
限期	-12778
难怪	-12779
雷霆	-12780
露出	-12781
青云	-12782
顺水	-12783
顺风	-12784
顽抗	-12785
饭桶	-12786
饭票	-12787
驱逐	-12788
高斌	-12789
高涨	-12790
高第	-12791
鳞伤	-12792
黄沙	-12793
鼓动	-12794
)。”	-12795
▁三天	-12796
▁两天	-12797
▁但最	-12798
▁出于	-12799
▁前面	-12800
▁南京	-12801
▁原本	-12802
▁同年	-12803
▁已经	-12804
▁张辅	-12805
▁形势	-12806
▁时间	-12807
▁是啊	-12808
▁每次	-12809
▁皇后	-12810
▁看见	-12811
▁等到	-12812
▁简单	-12813
▁胡濙	-12814
▁蒙古	-12815
▁铁铉	-12816
▁随着	-12817
一时间	-12818
一条路	-12819
丁汝夔	-12820
万掌门	-12821
下一次	-12822
不两立	-12823
不为人	-12824
不像话	-12825
不外乎	-12826
不由得	-12827
不要钱	-12828
丝马迹	-12829
严重性	-12830
为何要	-12831
主要的	-12832
也不再	-12833
也不多	-12834
也不怕	-12835
也包括	-12836
也开始	-12837
也是很	-12838
也有了	-12839
也未能	-12840
也没少	-12841
买不起	-12842
了一份	-12843
了一百	-12844
了几天	-12845
了朱棣	-12846
于慎行	-12847
五军营	-12848
五年的	-12849
人不备	-12850
什么呢	-12851
仅有的	-12852
从没有	-12853
他也会	-12854
他二十	-12855
他就不	-12856
他早就	-12857
他的命	-12858
他的好	-12859
他能够	-12860
他还能	-12861
他马上	-12862
付出的	-12863
代表着	-12864
以至于	-12865
优等生	-12866
会来事	-12867
但严嵩	-12868
但其实	-12869
但至少	-12870
但让他	-12871
但问题	-12872
低估了	-12873
何况是	-12874
你没有	-12875
全罗道	-12876
八年前	-12877
六年前	-12878
关宁军	-12879
具备了	-12880
再一次	-12881
写好了	-12882
准备在	-12883
副将军	-12884
办事的	-12885
办公室	-12886
包工头	-12887
十几个	-12888
十年的	-12889
卖国贼	-12890
南军的	-12891
占据着	-12892
却仍然	-12893
却发现	-12894
却毫不	-12895
厚黑学	-12896
县太爷	-12897
又一个	-12898
友好的	-12899
只是想	-12900
只是要	-12901
只有在	-12902
只要有	-12903
可以不	-12904
可这位	-12905
史学家	-12906
司法部	-12907
吃饱饭	-12908
名将们	-12909
后宫中	-12910
后来被	-12911
和之前	-12912
和石亨	-12913
啥也别	-12914
四千人	-12915
回来后	-12916
因为从	-12917
在少数	-12918
在徐阶	-12919
在短短	-12920
在这位	-12921
在这片	-12922
地上的	-12923
地区的	-12924
地道的	-12925
夏先生	-12926
多岁的	-12927
大意是	-12928
大问题	-12929
天才的	-12930
太多的	-12931
失望了	-12932
头烂额	-12933
女人的	-12934
如指掌	-12935
如泰山	-12936
孙子的	-12937
宫中的	-12938
宫里的	-12939
容不下	-12940
对我说	-12941
对手的	-12942
对明朝	-12943
对皇帝	-12944
将自己	-12945
小早川	-12946
就属于	-12947
就应该	-12948
就怎么	-12949
就有点	-12950
尽到了	-12951
岁月里	-12952
岛正则	-12953
崇祯很	-12954
崔文升	-12955
希望你	-12956
带来的	-12957
干不了	-12958
干净净	-12959
幼年的	-12960
张世爵	-12961
张文明	-12962
张白圭	-12963
强悍的	-12964
很重要	-12965
徐达的	-12966
徐首辅	-12967
得太快	-12968
忽必烈	-12969
怎样的	-12970
总动员	-12971
总是有	-12972
总督的	-12973
想不通	-12974
惹不起	-12975
意义的	-12976
愣住了	-12977
我不是	-12978
我曾经	-12979
我的人	-12980
战败后	-12981
手可得	-12982
打不着	-12983
打天下	-12984
打赢了	-12985
把这位	-12986
投奔了	-12987
折腾得	-12988
拿主意	-12989
指挥下	-12990
指望的	-12991
按规定	-12992
搞不清	-12993
搞出了	-12994
搭理他	-12995
撤退的	-12996
收拾了	-12997
攻下了	-12998
文官们	-12999
无情地	-13000
无论你	-13001
无辜的	-13002
时候的	-13003
明仁宗	-13004
明帝国	-13005
明英宗	-13006
是不大	-13007
是太监	-13008
是徐阶	-13009
是朝廷	-13010
是阉党	-13011
智多谋	-13012
智慧的	-13013
暗地里	-13014
更不会	-13015
有一句	-13016
有不慎	-13017
有些人	-13018
有人在	-13019
有关系	-13020
有几个	-13021
有名的	-13022
有成竹	-13023
有文化	-13024
有的说	-13025
有这么	-13026
朝廷中	-13027
朝鲜军	-13028
机动性	-13029
杀人的	-13030
杀害了	-13031
李存义	-13032
李时勉	-13033
条战船	-13034
来由的	-13035
来看看	-13036
杨大人	-13037
档次的	-13038
武士刀	-13039
武选司	-13040
死人的	-13041
氏父子	-13042
民族的	-13043
水平的	-13044
汤先生	-13045
汤显祖	-13046
没怎么	-13047
没文化	-13048
没问题	-13049
注意到	-13050
消息后	-13051
混日子	-13052
激动了	-13053
火器和	-13054
牺牲品	-13055
猛人的	-13056
现在他	-13057
现在还	-13058
现成的	-13059
理想的	-13060
生出来	-13061
用行动	-13062
留下来	-13063
百姓的	-13064
的一刻	-13065
的一条	-13066
的书生	-13067
的亲戚	-13068
的人去	-13069
的光辉	-13070
的具体	-13071
的名声	-13072
的安排	-13073
的心腹	-13074
的心里	-13075
的情绪	-13076
的意义	-13077
的战士	-13078
的所谓	-13079
的权利	-13080
的死党	-13081
的死讯	-13082
的看法	-13083
的罪名	-13084
的职业	-13085
的角色	-13086
的言官	-13087
的过程	-13088
的运气	-13089
的部下	-13090
皦生光	-13091
监狱的	-13092
相当地	-13093
看准了	-13094
看清了	-13095
看热闹	-13096
看透了	-13097
私房钱	-13098
私生活	-13099
穷光蛋	-13100
站在他	-13101
站起来	-13102
站起身	-13103
竟然又	-13104
章允儒	-13105
第一军	-13106
第二道	-13107
等待了	-13108
经验的	-13109
结论是	-13110
绝对的	-13111
缓过劲	-13112
老滑头	-13113
考不中	-13114
而明军	-13115
而那些	-13116
背负着	-13117
能不能	-13118
腿就跑	-13119
自信的	-13120
自然就	-13121
若干人	-13122
苦思冥	-13123
英国公	-13124
落入了	-13125
落在了	-13126
董事长	-13127
被人骂	-13128
被他们	-13129
被干掉	-13130
被赶走	-13131
要人命	-13132
要你命	-13133
要收拾	-13134
解释了	-13135
认真的	-13136
让大家	-13137
记载的	-13138
讲义气	-13139
该干嘛	-13140
说的了	-13141
说过了	-13142
谁也没	-13143
赵大人	-13144
起来了	-13145
超过了	-13146
跑得快	-13147
轮不到	-13148
还包括	-13149
这一仗	-13150
这一关	-13151
这一刻	-13152
这一生	-13153
这一行	-13154
这位李	-13155
这小子	-13156
这笔钱	-13157
这类人	-13158
进来的	-13159
进行着	-13160
送上了	-13161
逃不过	-13162
造成的	-13163
那么大	-13164
邵大侠	-13165
郑芝龙	-13166
都不管	-13167
都不给	-13168
都十分	-13169
都没用	-13170
都认为	-13171
金瓶梅	-13172
镇定地	-13173
长得很	-13174
长期的	-13175
闹大了	-13176
阿济格	-13177
除了他	-13178
集团的	-13179
非常之	-13180
面子的	-13181
骑兵的	-13182
高攀龙	-13183
高起潜	-13184
鸭绿江	-13185
(148	-13186
▁一个人	-13187
▁估计是	-13188
▁但事情	-13189
▁但很快	-13190
▁但是他	-13191
▁在这次	-13192
▁就在他	-13193
▁左光斗	-13194
▁张士诚	-13195
▁既然是	-13196
▁日军的	-13197
▁李选侍	-13198
▁汪文言	-13199
▁王化贞	-13200
▁答案是	-13201
▁而现在	-13202
▁而这个	-13203
▁耿炳文	-13204
▁说实话	-13205
▁这正是	-13206
▁郭子兴	-13207
一个偶然	-13208
一个更为	-13209
一举荡平	-13210
一件好事	-13211
一切都在	-13212
一塌糊涂	-13213
一天到晚	-13214
一头雾水	-13215
一条鞭法	-13216
一百多年	-13217
七荤八素	-13218
不成问题	-13219
不明不白	-13220
不识时务	-13221
不速之客	-13222
不顾一切	-13223
东山再起	-13224
两位仁兄	-13225
两年之后	-13226
中国人的	-13227
中最大的	-13228
之所以会	-13229
也是他的	-13230
也是闲着	-13231
也没人管	-13232
了一辈子	-13233
二十万人	-13234
二十年前	-13235
于自己的	-13236
亲率大军	-13237
人多势众	-13238
仁义道德	-13239
从今以后	-13240
他一生的	-13241
他一直在	-13242
他们之间	-13243
他手下的	-13244
他最后的	-13245
他的目的	-13246
他的老师	-13247
任命他为	-13248
但他没有	-13249
但如果你	-13250
但实际上	-13251
做生意的	-13252
停止进攻	-13253
僵持不下	-13254
六品主事	-13255
关系很好	-13256
兴高采烈	-13257
其中一个	-13258
再也不能	-13259
再也无法	-13260
再次出山	-13261
军事实力	-13262
农民起义	-13263
冷眼旁观	-13264
准备好了	-13265
几个随从	-13266
几千年来	-13267
到处都是	-13268
到来之前	-13269
励精图治	-13270
势不两立	-13271
勇敢的人	-13272
十分客气	-13273
十分欣赏	-13274
十分紧张	-13275
十分顺利	-13276
升官发财	-13277
卢象升的	-13278
历经坎坷	-13279
厉害的人	-13280
原本以为	-13281
发起攻击	-13282
取得胜利	-13283
只要不是	-13284
只要是人	-13285
叫苦不迭	-13286
可怕的是	-13287
名不虚传	-13288
和魏忠贤	-13289
在的时候	-13290
地下工作	-13291
地方官员	-13292
基本上是	-13293
士气大振	-13294
大功告成	-13295
天下无敌	-13296
失去控制	-13297
好勇斗狠	-13298
如此而已	-13299
委以重任	-13300
安居乐业	-13301
官复原职	-13302
实在很难	-13303
实在无法	-13304
实在是一	-13305
实在比较	-13306
对于这位	-13307
封建迷信	-13308
就干什么	-13309
就是我们	-13310
山西总兵	-13311
岁的少年	-13312
崇祯二年	-13313
巡抚衙门	-13314
已经完全	-13315
带着他的	-13316
干一件事	-13317
干干净净	-13318
并不喜欢	-13319
并不在意	-13320
建州女真	-13321
建文帝的	-13322
当他看到	-13323
当年那个	-13324
很多大臣	-13325
很快就要	-13326
得不能再	-13327
心灰意冷	-13328
心知肚明	-13329
意味深长	-13330
我们今天	-13331
所作所为	-13332
手无寸铁	-13333
打开城门	-13334
打道回府	-13335
找上门来	-13336
找到答案	-13337
把汉那吉	-13338
抵挡不住	-13339
拍案而起	-13340
按照他的	-13341
撑不住了	-13342
收拾东西	-13343
无论何时	-13344
日子过得	-13345
日本海军	-13346
明代第一	-13347
是一个不	-13348
是一个有	-13349
是不行了	-13350
是东林党	-13351
是幸运的	-13352
是错误的	-13353
最多也就	-13354
有很大的	-13355
有条不紊	-13356
有点问题	-13357
朝廷内外	-13358
朱棣终于	-13359
朱祁钰的	-13360
权谋手段	-13361
杨继盛的	-13362
根本无法	-13363
欧阳一敬	-13364
此次出征	-13365
殿大学士	-13366
毁于一旦	-13367
毅然决定	-13368
毫无畏惧	-13369
毫无进展	-13370
气势汹汹	-13371
江浙一带	-13372
沉默不语	-13373
没有人会	-13374
没有说话	-13375
派人去找	-13376
流氓地痞	-13377
海西女真	-13378
灰头土脸	-13379
烧杀抢掠	-13380
焦头烂额	-13381
独门绝技	-13382
瓦剌军队	-13383
留在这里	-13384
的一部分	-13385
的书呆子	-13386
的人正是	-13387
的大多数	-13388
的日子里	-13389
的朱元璋	-13390
的第一个	-13391
的话来说	-13392
的锦衣卫	-13393
的魏忠贤	-13394
皇帝已经	-13395
看到的是	-13396
瞠目结舌	-13397
礼遇有加	-13398
福岛正则	-13399
科举考试	-13400
精神病人	-13401
精锐部队	-13402
纨绔子弟	-13403
纹丝不动	-13404
而他们的	-13405
而这个人	-13406
胆大包天	-13407
胆战心惊	-13408
胡惟庸的	-13409
胸有成竹	-13410
自己手下	-13411
自己能够	-13412
荣誉称号	-13413
蒙在鼓里	-13414
虽然不是	-13415
蛛丝马迹	-13416
蛮荒之地	-13417
议论纷纷	-13418
详细介绍	-13419
说了这样	-13420
说这句话	-13421
诸位头领	-13422
赶到京城	-13423
足智多谋	-13424
跃跃欲试	-13425
载入史册	-13426
还是因为	-13427
这一情况	-13428
这个看似	-13429
这个道理	-13430
这个黑锅	-13431
这么看来	-13432
这也难怪	-13433
这些人是	-13434
这封文书	-13435
这是我的	-13436
这样一点	-13437
这次远征	-13438
连中三元	-13439
遍体鳞伤	-13440
金榜题名	-13441
阎王那里	-13442
阴谋诡计	-13443
青史留名	-13444
面对这个	-13445
▁一天之后	-13446
▁万历三十	-13447
▁丰臣秀吉	-13448
▁于是他们	-13449
▁他之所以	-13450
▁但这一次	-13451
▁几天之后	-13452
▁因为他们	-13453
▁在朱元璋	-13454
▁在此之前	-13455
▁就在此时	-13456
▁崇祯四年	-13457
▁无奈之下	-13458
▁朱元璋的	-13459
▁没过多久	-13460
▁消息传来	-13461
▁然而出乎	-13462
▁这一天是	-13463
▁这两个人	-13464
▁这是一场	-13465
▁隆庆六年	-13466
一如既往地	-13467
万历二十年	-13468
下面我们将	-13469
丰臣秀吉的	-13470
之类的把戏	-13471
了不起的人	-13472
二十多年的	-13473
于是他决定	-13474
他把自己的	-13475
伯颜帖木儿	-13476
你就会发现	-13477
元朝统治者	-13478
六十万大军	-13479
刘健和谢迁	-13480
创造了一个	-13481
到此为止了	-13482
制定了一个	-13483
发动了总攻	-13484
发生了变化	-13485
可以理解的	-13486
合适的人选	-13487
向皇帝上书	-13488
呆呆地看着	-13489
唯一的方法	-13490
啥也别说了	-13491
因为他相信	-13492
在日本国内	-13493
坚持自己的	-13494
完成了他的	-13495
已经达到了	-13496
干净利落地	-13497
很有可能是	-13498
恢复了平静	-13499
惊奇的发现	-13500
意外地发现	-13501
所以他决定	-13502
是一个极为	-13503
是个老实人	-13504
是因为他们	-13505
最为强大的	-13506
朱棣是一个	-13507
残酷的事实	-13508
直截了当地	-13509
矛头对准了	-13510
而是因为他	-13511
肆无忌惮地	-13512
自己的目的	-13513
至少在当时	-13514
袁崇焕同志	-13515
这个所谓的	-13516
这个消息后	-13517
问题的答案	-13518
(1572)	-13519
(1598)	-13520
▁万历十一年	-13521
▁但问题在于	-13522
▁只有一个人	-13523
▁听到这句话	-13524
▁据史料记载	-13525
他终于找到了	-13526
回到了自己的	-13527
因为他很清楚	-13528
因为这位仁兄	-13529
就此拉开序幕	-13530
所有人的意料	-13531
经过仔细思考	-13532
闲着也是闲着	-13533
);	-13534
,《	-13535
3、	-13536
re	-13537
▁中	-13538
▁同	-13539
▁孙	-13540
▁都	-13541
▁钱	-13542
一二	-13543
一双	-13544
一朝	-13545
一横	-13546
一算	-13547
一语	-13548
一趟	-13549
一门	-13550
万剐	-13551
万妃	-13552
万龄	-13553
三章	-13554
三边	-13555
上交	-13556
上升	-13557
上吊	-13558
上学	-13559
上帝	-13560
上榜	-13561
上访	-13562
下班	-13563
不休	-13564
不惜	-13565
不愁	-13566
不穷	-13567
不舍	-13568
不良	-13569
不苟	-13570
不请	-13571
不转	-13572
不长	-13573
与人	-13574
专人	-13575
东江	-13576
丢脸	-13577
严酷	-13578
丧失	-13579
个好	-13580
中书	-13581
主攻	-13582
主管	-13583
之于	-13584
之勇	-13585
之境	-13586
之所	-13587
之手	-13588
之焕	-13589
之理	-13590
之计	-13591
九个	-13592
九品	-13593
也让	-13594
也顾	-13595
书画	-13596
乱打	-13597
乳母	-13598
乾隆	-13599
争吵	-13600
云龙	-13601
五彪	-13602
五省	-13603
交出	-13604
产物	-13605
亲兵	-13606
亲王	-13607
人群	-13608
仁宣	-13609
从天	-13610
从而	-13611
他乡	-13612
他管	-13613
以他	-13614
以防	-13615
们所	-13616
仰天	-13617
价钱	-13618
优异	-13619
会合	-13620
传扬	-13621
传授	-13622
传递	-13623
传遍	-13624
传闻	-13625
伸冤	-13626
但却	-13627
体质	-13628
体贴	-13629
体验	-13630
何以	-13631
作俑	-13632
佩韦	-13633
保守	-13634
保重	-13635
信条	-13636
修成	-13637
俱全	-13638
倒的	-13639
倒算	-13640
借刀	-13641
值钱	-13642
假意	-13643
做点	-13644
偷生	-13645
元标	-13646
充满	-13647
先例	-13648
先帝	-13649
先攻	-13650
光禄	-13651
免得	-13652
党羽	-13653
全副	-13654
八大	-13655
公愤	-13656
六位	-13657
兰忽	-13658
兰教	-13659
关怀	-13660
兴盛	-13661
兴起	-13662
养病	-13663
内侍	-13664
内的	-13665
再考	-13666
写完	-13667
军户	-13668
军法	-13669
军纪	-13670
军费	-13671
冤大	-13672
冲去	-13673
冲昏	-13674
冲突	-13675
减少	-13676
出之	-13677
切齿	-13678
刘吉	-13679
刚正	-13680
刚死	-13681
创业	-13682
别出	-13683
到场	-13684
制约	-13685
刻骨	-13686
削职	-13687
前者	-13688
剧情	-13689
剩余	-13690
副使	-13691
副手	-13692
割了	-13693
割让	-13694
剿匪	-13695
剿灭	-13696
功能	-13697
加重	-13698
动力	-13699
劳苦	-13700
勒令	-13701
匆忙	-13702
化学	-13703
十倍	-13704
半仙	-13705
半壁	-13706
南人	-13707
占有	-13708
印月	-13709
危亡	-13710
却能	-13711
却让	-13712
卷起	-13713
去管	-13714
去路	-13715
县学	-13716
县里	-13717
反动	-13718
反感	-13719
发给	-13720
发问	-13721
受伤	-13722
受命	-13723
变通	-13724
另找	-13725
只因	-13726
召唤	-13727
可不	-13728
可言	-13729
史籍	-13730
叶冠	-13731
号召	-13732
吃奶	-13733
吃得	-13734
各省	-13735
合伙	-13736
同伙	-13737
同伴	-13738
名门	-13739
后再	-13740
向上	-13741
听取	-13742
吵闹	-13743
呼啸	-13744
和善	-13745
和赵	-13746
品种	-13747
品质	-13748
哑巴	-13749
哗变	-13750
哗然	-13751
哭天	-13752
商业	-13753
善终	-13754
喊打	-13755
嗅觉	-13756
嘱托	-13757
嚷嚷	-13758
四城	-13759
四字	-13760
固执	-13761
国外	-13762
图书	-13763
圈子	-13764
在夜	-13765
在朝	-13766
在江	-13767
在身	-13768
地府	-13769
地是	-13770
坐镇	-13771
堂姐	-13772
士利	-13773
声明	-13774
处处	-13775
复仁	-13776
复起	-13777
夏天	-13778
外星	-13779
多有	-13780
够呛	-13781
够狠	-13782
大于	-13783
大到	-13784
大吉	-13785
大堂	-13786
大展	-13787
大帝	-13788
大帮	-13789
大干	-13790
大患	-13791
大敌	-13792
大方	-13793
大气	-13794
大略	-13795
大纮	-13796
大老	-13797
大计	-13798
大铖	-13799
天宠	-13800
天衣	-13801
天象	-13802
天雄	-13803
失温	-13804
夹杂	-13805
夺权	-13806
奔走	-13807
套用	-13808
奢侈	-13809
奶妈	-13810
奸党	-13811
如入	-13812
如山	-13813
如有	-13814
妙的	-13815
妨碍	-13816
委派	-13817
媳妇	-13818
子上	-13819
存亡	-13820
孝宗	-13821
学术	-13822
学校	-13823
它们	-13824
安顿	-13825
完结	-13826
实人	-13827
实据	-13828
宣告	-13829
宣大	-13830
宣纸	-13831
宪宗	-13832
宫门	-13833
家产	-13834
家门	-13835
密云	-13836
密码	-13837
寡母	-13838
寨主	-13839
对食	-13840
封王	-13841
封贡	-13842
小小	-13843
少保	-13844
少傅	-13845
少林	-13846
尚且	-13847
尧舜	-13848
就了	-13849
就到	-13850
就快	-13851
就撤	-13852
就曾	-13853
尸横	-13854
尾巴	-13855
尾随	-13856
岳父	-13857
巧合	-13858
已久	-13859
已死	-13860
市民	-13861
希孝	-13862
平堡	-13863
平辽	-13864
并把	-13865
幼年	-13866
应奎	-13867
废纸	-13868
康熙	-13869
康茂	-13870
延绥	-13871
廷相	-13872
建国	-13873
建都	-13874
开张	-13875
开心	-13876
开路	-13877
引线	-13878
张春	-13879
弱智	-13880
弹药	-13881
强烈	-13882
强调	-13883
归宿	-13884
当个	-13885
当是	-13886
彭时	-13887
很小	-13888
很猛	-13889
很穷	-13890
很绝	-13891
得主	-13892
心如	-13893
忙碌	-13894
快到	-13895
快要	-13896
恭妃	-13897
恭毕	-13898
悟性	-13899
惨剧	-13900
惨痛	-13901
惯了	-13902
想得	-13903
想必	-13904
想找	-13905
想着	-13906
成王	-13907
成祖	-13908
我爹	-13909
戒备	-13910
战报	-13911
战机	-13912
战线	-13913
战绩	-13914
房屋	-13915
所欲	-13916
手的	-13917
手续	-13918
才人	-13919
打人	-13920
打包	-13921
打压	-13922
打扫	-13923
打消	-13924
打量	-13925
托塔	-13926
执意	-13927
扬威	-13928
找死	-13929
抓获	-13930
投了	-13931
投票	-13932
抗衡	-13933
报答	-13934
报销	-13935
披靡	-13936
抱怨	-13937
拍着	-13938
拜见	-13939
拿破	-13940
指引	-13941
挑拨	-13942
挥刀	-13943
捐躯	-13944
换取	-13945
掉进	-13946
探花	-13947
控诉	-13948
掩耳	-13949
措施	-13950
摸着	-13951
撕破	-13952
撤离	-13953
收费	-13954
攻取	-13955
放牧	-13956
放纵	-13957
放肆	-13958
政局	-13959
敌营	-13960
救了	-13961
教官	-13962
教材	-13963
散了	-13964
整套	-13965
斧头	-13966
新人	-13967
方亨	-13968
方可	-13969
方才	-13970
无双	-13971
无罪	-13972
无话	-13973
无锡	-13974
日以	-13975
日公	-13976
春风	-13977
是也	-13978
是用	-13979
是老	-13980
昺和	-13981
显眼	-13982
晃悠	-13983
晕倒	-13984
智勇	-13985
智囊	-13986
暗号	-13987
曲折	-13988
更能	-13989
曾在	-13990
曾被	-13991
有事	-13992
有灵	-13993
有罪	-13994
朝圣	-13995
朝天	-13996
朝局	-13997
期的	-13998
木板	-13999
末了	-14000
本固	-14001
朱三	-14002
机密	-14003
机智	-14004
杀机	-14005
权和	-14006
权贵	-14007
李献	-14008
束手	-14009
来人	-14010
杨晔	-14011
松懈	-14012
松江	-14013
板斧	-14014
极不	-14015
极力	-14016
极深	-14017
枕头	-14018
枯燥	-14019
案发	-14020
模式	-14021
正事	-14022
正规	-14023
此吕	-14024
此理	-14025
此类	-14026
死拼	-14027
死者	-14028
残局	-14029
殿后	-14030
毅力	-14031
毒辣	-14032
民居	-14033
民风	-14034
气不	-14035
气度	-14036
水准	-14037
求和	-14038
求是	-14039
汉城	-14040
汗马	-14041
汝才	-14042
沉浮	-14043
沉着	-14044
沉重	-14045
没处	-14046
没说	-14047
泄露	-14048
法制	-14049
法和	-14050
活得	-14051
活捉	-14052
活跃	-14053
派头	-14054
流动	-14055
流民	-14056
流程	-14057
流窜	-14058
流贼	-14059
浙东	-14060
浮现	-14061
海岸	-14062
海战	-14063
海里	-14064
消除	-14065
淮河	-14066
深信	-14067
深情	-14068
深远	-14069
深陷	-14070
混吃	-14071
混派	-14072
清代	-14073
清白	-14074
渡过	-14075
游荡	-14076
游行	-14077
游说	-14078
潮水	-14079
火山	-14080
火攻	-14081
火烧	-14082
火的	-14083
灭口	-14084
炮兵	-14085
炮轰	-14086
炸膛	-14087
烈火	-14088
烧毁	-14089
照着	-14090
牵涉	-14091
犯上	-14092
狗屎	-14093
独眼	-14094
猛将	-14095
猴子	-14096
率兵	-14097
玉食	-14098
玩得	-14099
生平	-14100
生路	-14101
用他	-14102
用语	-14103
甭管	-14104
电话	-14105
疑心	-14106
病死	-14107
的了	-14108
的余	-14109
的后	-14110
的呢	-14111
监生	-14112
相搏	-14113
看作	-14114
看家	-14115
看病	-14116
石块	-14117
破案	-14118
祭天	-14119
祭酒	-14120
禁止	-14121
福清	-14122
科的	-14123
空缺	-14124
空额	-14125
立志	-14126
立足	-14127
童生	-14128
笔录	-14129
第七	-14130
等级	-14131
筹码	-14132
简历	-14133
粮仓	-14134
素养	-14135
累积	-14136
累赘	-14137
纠缠	-14138
组合	-14139
细看	-14140
绑票	-14141
给点	-14142
缓和	-14143
缘由	-14144
缴获	-14145
缺口	-14146
老公	-14147
考到	-14148
而亡	-14149
而从	-14150
而入	-14151
而易	-14152
耍诈	-14153
职权	-14154
联络	-14155
胆量	-14156
脸面	-14157
腐化	-14158
腾腾	-14159
膜拜	-14160
臣民	-14161
自小	-14162
至理	-14163
致人	-14164
舍生	-14165
花的	-14166
若无	-14167
若狂	-14168
苦了	-14169
草拟	-14170
荒唐	-14171
荒芜	-14172
药物	-14173
莫及	-14174
落幕	-14175
落马	-14176
葬礼	-14177
蓟门	-14178
蔚县	-14179
藏在	-14180
虔诚	-14181
虚心	-14182
行列	-14183
行政	-14184
衣着	-14185
被烧	-14186
被誉	-14187
裤子	-14188
西安	-14189
要到	-14190
要有	-14191
要走	-14192
要问	-14193
见他	-14194
见势	-14195
观音	-14196
计较	-14197
讲学	-14198
讲得	-14199
讲课	-14200
设伏	-14201
诅咒	-14202
诈降	-14203
诉苦	-14204
诧异	-14205
请罪	-14206
调令	-14207
谈不	-14208
谈笑	-14209
谢涟	-14210
豪杰	-14211
贪生	-14212
贯彻	-14213
贯通	-14214
贸然	-14215
贿赂	-14216
赦免	-14217
赫图	-14218
走着	-14219
走远	-14220
赶往	-14221
超出	-14222
足山	-14223
足矣	-14224
跟踪	-14225
路费	-14226
践踏	-14227
蹩脚	-14228
身无	-14229
轻轻	-14230
辈分	-14231
辎重	-14232
输的	-14233
边防	-14234
运用	-14235
这可	-14236
这股	-14237
这要	-14238
进口	-14239
进忠	-14240
违抗	-14241
迟疑	-14242
迷惑	-14243
追随	-14244
退兵	-14245
退后	-14246
退敌	-14247
逃出	-14248
逃往	-14249
逃散	-14250
选中	-14251
逍遥	-14252
逐个	-14253
通货	-14254
遇事	-14255
遍地	-14256
道教	-14257
遗嘱	-14258
遥远	-14259
遵循	-14260
避难	-14261
那点	-14262
郊区	-14263
都敢	-14264
都由	-14265
都给	-14266
都行	-14267
金刚	-14268
钞票	-14269
钱财	-14270
铁甲	-14271
门庭	-14272
闪闪	-14273
问我	-14274
问达	-14275
闻讯	-14276
队形	-14277
防卫	-14278
陆军	-14279
限于	-14280
除去	-14281
除根	-14282
隆景	-14283
隐居	-14284
难忘	-14285
难攻	-14286
雀跃	-14287
鞠躬	-14288
顶着	-14289
顾忌	-14290
顿感	-14291
预定	-14292
领军	-14293
领教	-14294
频繁	-14295
飞机	-14296
首任	-14297
马林	-14298
驸马	-14299
驿卒	-14300
骂你	-14301
骄横	-14302
骆驼	-14303
骇俗	-14304
骨干	-14305
高祖	-14306
黄泉	-14307
黑幕	-14308
▁三十	-14309
▁不用	-14310
▁也许	-14311
▁仇鸾	-14312
▁他向	-14313
▁他要	-14314
▁使者	-14315
▁六月	-14316
▁几乎	-14317
▁即使	-14318
▁原先	-14319
▁同时	-14320
▁唐寅	-14321
▁四十	-14322
▁四年	-14323
▁天下	-14324
▁太子	-14325
▁奇迹	-14326
▁奏疏	-14327
▁好吧	-14328
▁就是	-14329
▁应该	-14330
▁弘治	-14331
▁张忠	-14332
▁怀恩	-14333
▁怎么	-14334
▁情况	-14335
▁敌人	-14336
▁朝鲜	-14337
▁父亲	-14338
▁突然	-14339
▁这招	-14340
▁这时	-14341
▁这条	-14342
▁那是	-14343
▁难道	-14344
一个个	-14345
一个有	-14346
一千人	-14347
一合计	-14348
一起走	-14349
七年后	-14350
三千营	-14351
上千年	-14352
上门的	-14353
不久的	-14354
不但没	-14355
不想再	-14356
不懂得	-14357
不是人	-14358
不过来	-14359
与朱棣	-14360
专门的	-14361
世面的	-14362
两面派	-14363
严党的	-14364
严大人	-14365
严重了	-14366
严首辅	-14367
个把人	-14368
中度过	-14369
中间的	-14370
为人所	-14371
为后人	-14372
为防止	-14373
举一动	-14374
也就不	-14375
也干过	-14376
也彻底	-14377
也很有	-14378
也曾经	-14379
买通了	-14380
了一会	-14381
了一切	-14382
了一眼	-14383
了一阵	-14384
了许多	-14385
了进来	-14386
于是她	-14387
于谦的	-14388
五年前	-14389
交给我	-14390
京赶考	-14391
人事部	-14392
人民币	-14393
今北京	-14394
今日之	-14395
今蒙古	-14396
从他们	-14397
仔细的	-14398
他一下	-14399
他不会	-14400
他也曾	-14401
他坚信	-14402
他多次	-14403
他居然	-14404
他早已	-14405
他率军	-14406
他的帐	-14407
他而言	-14408
他非常	-14409
休息了	-14410
会议上	-14411
传来了	-14412
传达了	-14413
似乎又	-14414
似乎在	-14415
似乎还	-14416
但事实	-14417
但经过	-14418
但随着	-14419
作俑者	-14420
作战时	-14421
你就能	-14422
你才能	-14423
倒也没	-14424
倒霉了	-14425
做准备	-14426
做出的	-14427
做到的	-14428
停下来	-14429
光荣地	-14430
光辉的	-14431
八股文	-14432
六个字	-14433
六十岁	-14434
其不意	-14435
其主要	-14436
其名曰	-14437
兼太子	-14438
内容是	-14439
内蒙古	-14440
写青词	-14441
冤大头	-14442
冯太监	-14443
准备去	-14444
准备向	-14445
几年里	-14446
出一副	-14447
出去的	-14448
出名的	-14449
出生在	-14450
分为三	-14451
列举了	-14452
刘基的	-14453
创造性	-14454
判断出	-14455
到一个	-14456
到一半	-14457
到中国	-14458
到极点	-14459
加起来	-14460
区别的	-14461
十二岁	-14462
十二日	-14463
卓越的	-14464
南京城	-14465
即将被	-14466
却极为	-14467
却让他	-14468
厌倦了	-14469
厚道人	-14470
原因的	-14471
去打仗	-14472
发布了	-14473
发生过	-14474
取了个	-14475
取决于	-14476
只能算	-14477
只要能	-14478
吃不了	-14479
吃什么	-14480
吃顿饭	-14481
同学们	-14482
名将的	-14483
后来他	-14484
后果很	-14485
后金的	-14486
听说过	-14487
吹吹牛	-14488
呆住了	-14489
告一段	-14490
啥都没	-14491
喜宁的	-14492
土地上	-14493
在前方	-14494
在南昌	-14495
在嘉靖	-14496
在地上	-14497
在宁远	-14498
在它的	-14499
在官场	-14500
在山东	-14501
在朝中	-14502
在没有	-14503
在牢里	-14504
在这份	-14505
地开始	-14506
坚持了	-14507
城门口	-14508
培训班	-14509
基础上	-14510
大不了	-14511
大名的	-14512
大炮轰	-14513
天下之	-14514
天生的	-14515
太后的	-14516
太晚了	-14517
奉命去	-14518
好几次	-14519
孙如游	-14520
学家们	-14521
安全的	-14522
官吏们	-14523
客印月	-14524
对得起	-14525
对这一	-14526
将他们	-14527
小打小	-14528
就在这	-14529
就当是	-14530
就很难	-14531
就是有	-14532
就是要	-14533
就没了	-14534
就算你	-14535
就能够	-14536
属下们	-14537
岗位上	-14538
带走了	-14539
并不大	-14540
并将其	-14541
康茂才	-14542
延续了	-14543
建立的	-14544
强大到	-14545
强烈的	-14546
当地的	-14547
当官的	-14548
当首辅	-14549
征服了	-14550
很不幸	-14551
很多年	-14552
很多的	-14553
很强的	-14554
徐阶也	-14555
心服口	-14556
心满意	-14557
必定能	-14558
必须是	-14559
忍不住	-14560
忽兰忽	-14561
怎么来	-14562
怒之下	-14563
思想的	-14564
总兵官	-14565
总指挥	-14566
总是不	-14567
恭毕敬	-14568
悄悄地	-14569
悠久的	-14570
惨叫声	-14571
慌乱了	-14572
慢慢来	-14573
成功后	-14574
成就了	-14575
成长为	-14576
成问题	-14577
我不敢	-14578
我亲自	-14579
我们会	-14580
我就不	-14581
我就是	-14582
手工业	-14583
才终于	-14584
打一个	-14585
打到了	-14586
打垮了	-14587
打工的	-14588
打起来	-14589
打过来	-14590
找人去	-14591
找几个	-14592
抄家伙	-14593
投入了	-14594
担任过	-14595
拿破仑	-14596
据说连	-14597
排行榜	-14598
提一下	-14599
提拔了	-14600
摆出了	-14601
摆明了	-14602
撕破脸	-14603
支军队	-14604
支持下	-14605
支持他	-14606
改名为	-14607
敌军的	-14608
敏锐的	-14609
数千人	-14610
文明的	-14611
无一人	-14612
无奈的	-14613
无所不	-14614
无畏的	-14615
明军在	-14616
是一天	-14617
是万历	-14618
是不同	-14619
是不难	-14620
是很不	-14621
是必须	-14622
是明军	-14623
是真的	-14624
是首辅	-14625
更半夜	-14626
曾经的	-14627
最后还	-14628
有人来	-14629
有人说	-14630
有办法	-14631
本打算	-14632
本部院	-14633
朱棣是	-14634
杀了你	-14635
杀人不	-14636
李天宠	-14637
杜总兵	-14638
杨维垣	-14639
梅之焕	-14640
正二品	-14641
死了爹	-14642
死光了	-14643
死太监	-14644
母亲的	-14645
比自己	-14646
沉默中	-14647
沉默的	-14648
没必要	-14649
没见过	-14650
消失了	-14651
深远的	-14652
清醒的	-14653
游戏中	-14654
热情地	-14655
然后在	-14656
王安石	-14657
现在我	-14658
生活在	-14659
用上了	-14660
用我的	-14661
用武力	-14662
用这种	-14663
申先生	-14664
的一击	-14665
的一员	-14666
的一招	-14667
的两个	-14668
的事业	-14669
的事了	-14670
的京城	-14671
的人中	-14672
的使命	-14673
的元军	-14674
的关键	-14675
的南军	-14676
的原则	-14677
的可怕	-14678
的同学	-14679
的地盘	-14680
的大门	-14681
的家庭	-14682
的小孩	-14683
的希望	-14684
的战船	-14685
的数字	-14686
的日期	-14687
的明朝	-14688
的智商	-14689
的最大	-14690
的最终	-14691
的标准	-14692
的民军	-14693
的生意	-14694
的秘密	-14695
的老人	-14696
的表演	-14697
的起因	-14698
的进士	-14699
的那一	-14700
的那种	-14701
皇位的	-14702
皇帝不	-14703
相当之	-14704
看了看	-14705
看错人	-14706
眼前亏	-14707
神奇的	-14708
穷秀才	-14709
竟然有	-14710
笑而不	-14711
简单了	-14712
精明的	-14713
糊涂了	-14714
纳闷了	-14715
终于被	-14716
结束后	-14717
绝望的	-14718
统治下	-14719
缺心眼	-14720
罪名是	-14721
翟学士	-14722
老婆的	-14723
老祖宗	-14724
考上了	-14725
而他也	-14726
而其中	-14727
而皇帝	-14728
而那时	-14729
胡公子	-14730
能混到	-14731
自己在	-14732
至少比	-14733
艘战舰	-14734
范围内	-14735
莫大的	-14736
行动了	-14737
袁大人	-14738
被发配	-14739
被后人	-14740
被誉为	-14741
西平堡	-14742
要么是	-14743
要远远	-14744
见过大	-14745
规则的	-14746
视同仁	-14747
许多年	-14748
试不爽	-14749
话说得	-14750
说不上	-14751
说他们	-14752
说出来	-14753
请陛下	-14754
谷大用	-14755
责任推	-14756
贪污犯	-14757
走向了	-14758
赶出了	-14759
起到了	-14760
起家的	-14761
足可以	-14762
跑回来	-14763
跳起来	-14764
辞职信	-14765
过两天	-14766
过得很	-14767
还只是	-14768
还喜欢	-14769
还是不	-14770
还是没	-14771
还有着	-14772
这个官	-14773
这么干	-14774
这份上	-14775
这位老	-14776
这哥们	-14777
这封信	-14778
这并非	-14779
这拨人	-14780
进不去	-14781
进攻时	-14782
违背了	-14783
退出了	-14784
退回去	-14785
送来了	-14786
选定了	-14787
那可就	-14788
那可是	-14789
邹元标	-14790
都不用	-14791
都是些	-14792
镇江堡	-14793
长得帅	-14794
阮大铖	-14795
防弹衣	-14796
陆万龄	-14797
难伺候	-14798
难道要	-14799
鞑靼的	-14800
领工资	-14801
领悟了	-14802
颜佩韦	-14803
香叶冠	-14804
骂他的	-14805
骆尚志	-14806
骑着马	-14807
高得多	-14808
鲍崇德	-14809
鸡足山	-14810
(143	-14811
here	-14812
▁一天后	-14813
▁一年前	-14814
▁七月十	-14815
▁三年后	-14816
▁不久后	-14817
▁不能再	-14818
▁他随即	-14819
▁但如果	-14820
▁但就在	-14821
▁但崇祯	-14822
▁但徐阶	-14823
▁俗话说	-14824
▁可是他	-14825
▁后来的	-14826
▁后金军	-14827
▁张定边	-14828
▁徐宏祖	-14829
▁更何况	-14830
▁更让他	-14831
▁曹吉祥	-14832
▁李舜臣	-14833
▁然而当	-14834
▁考虑到	-14835
▁这不是	-14836
▁这些人	-14837
▁陈祖义	-14838
▁马哈木	-14839
一万余人	-14840
一个太监	-14841
一切都将	-14842
一段时间	-14843
一片大好	-14844
一直认为	-14845
三个儿子	-14846
三十多年	-14847
上了一封	-14848
下达命令	-14849
不以为然	-14850
不共戴天	-14851
不同寻常	-14852
不听话的	-14853
不容易啊	-14854
不敢怠慢	-14855
不祥的预	-14856
不见踪影	-14857
不过是想	-14858
与朱元璋	-14859
东厂特务	-14860
丞相制度	-14861
中的一个	-14862
为了能够	-14863
久经考验	-14864
也不过是	-14865
也是有的	-14866
也没想到	-14867
了一条命	-14868
了几十年	-14869
二十一岁	-14870
五月二十	-14871
亲自出马	-14872
人送外号	-14873
什么地方	-14874
从天而降	-14875
仔细研究	-14876
他们纷纷	-14877
他只是个	-14878
他拿出了	-14879
他派出了	-14880
他的判断	-14881
他的敌人	-14882
他的眼前	-14883
他的能力	-14884
他的身体	-14885
他的这个	-14886
他见到了	-14887
他还没有	-14888
他选择了	-14889
他遇见了	-14890
伊斯兰教	-14891
优良传统	-14892
传奇色彩	-14893
估计也是	-14894
但戚继光	-14895
体现出了	-14896
使用火器	-14897
借此机会	-14898
值得我们	-14899
僵持状态	-14900
光宗同志	-14901
光荣传统	-14902
光荣退休	-14903
全副武装	-14904
公正地讲	-14905
内阁学士	-14906
凑巧的是	-14907
几十年后	-14908
几百年来	-14909
出其不意	-14910
别无选择	-14911
别的办法	-14912
十一月十	-14913
十几年前	-14914
十分复杂	-14915
十分奇怪	-14916
十分感动	-14917
十分有趣	-14918
十分激动	-14919
千刀万剐	-14920
千里之外	-14921
即将成为	-14922
却丝毫不	-14923
历史舞台	-14924
又回来了	-14925
反对他的	-14926
发动反击	-14927
发动反攻	-14928
发明创造	-14929
受不了了	-14930
只是希望	-14931
可以忽略	-14932
可以看到	-14933
司礼太监	-14934
吃了一惊	-14935
各级官员	-14936
名垂青史	-14937
告诉大家	-14938
命令军队	-14939
和张居正	-14940
和王守仁	-14941
咬牙切齿	-14942
唯一能够	-14943
唾沫横飞	-14944
回家睡觉	-14945
因为此时	-14946
在朱棣的	-14947
坐在皇位	-14948
坚守城池	-14949
基本属于	-14950
够意思了	-14951
大军到达	-14952
大可不必	-14953
大喊一声	-14954
大家可能	-14955
大家知道	-14956
大家都很	-14957
大家都能	-14958
大抵如此	-14959
大规模的	-14960
天衣无缝	-14961
奇怪的人	-14962
如入无人	-14963
如此自信	-14964
始作俑者	-14965
始终相信	-14966
孤儿寡母	-14967
安然无恙	-14968
实在太差	-14969
实在过于	-14970
将自己的	-14971
就得到了	-14972
就是没有	-14973
就要来了	-14974
就这样在	-14975
尸横遍野	-14976
屁股后面	-14977
属于我的	-14978
岂有此理	-14979
崇祯下令	-14980
崇祯九年	-14981
巡抚大人	-14982
工作就是	-14983
带头冲锋	-14984
带领部队	-14985
常遇春的	-14986
幕后黑手	-14987
干得相当	-14988
平凡的人	-14989
并不满足	-14990
并非什么	-14991
应该知道	-14992
开国以来	-14993
开始了他	-14994
彻底解决	-14995
得意洋洋	-14996
必定能够	-14997
忍不住了	-14998
怎么得了	-14999
急得不行	-15000
总有一天	-15001
惊世骇俗	-15002
感觉到了	-15003
慷慨激昂	-15004
我一个人	-15005
我们后面	-15006
我们还要	-15007
戴罪立功	-15008
所以每次	-15009
所向披靡	-15010
打了一仗	-15011
打定主意	-15012
托塔天王	-15013
把所有的	-15014
报效国家	-15015
按照惯例	-15016
挽救危局	-15017
支持他的	-15018
教训一下	-15019
文化程度	-15020
斩草除根	-15021
斩首示众	-15022
日军舰队	-15023
明军大败	-15024
明军开始	-15025
明帝国的	-15026
是一个人	-15027
是个相当	-15028
是袁崇焕	-15029
昺和谢贵	-15030
普天之下	-15031
有两个人	-15032
朝廷中的	-15033
本来就不	-15034
朱棣而言	-15035
朱高炽的	-15036
杀人灭口	-15037
杀气腾腾	-15038
权倾天下	-15039
来到京城	-15040
极为愤怒	-15041
根本就不	-15042
欣喜若狂	-15043
正是因为	-15044
比较特别	-15045
毕恭毕敬	-15046
毫无办法	-15047
毫无反应	-15048
毫无用处	-15049
民不聊生	-15050
汗马功劳	-15051
没有关系	-15052
没有好处	-15053
没有必要	-15054
注意到了	-15055
泰州学派	-15056
活了下来	-15057
火冒三丈	-15058
点了点头	-15059
率领他的	-15060
班师回朝	-15061
由此可见	-15062
的杨继盛	-15063
的老实人	-15064
的那一幕	-15065
的那句话	-15066
的陈友谅	-15067
相当厉害	-15068
看着办吧	-15069
知府大人	-15070
破口大骂	-15071
离开这里	-15072
私盐贩子	-15073
稍有不慎	-15074
突然出现	-15075
突然袭击	-15076
立下大功	-15077
立刻下令	-15078
立即下令	-15079
竟然没有	-15080
竭尽全力	-15081
等奖得主	-15082
类似今天	-15083
精锐骑兵	-15084
级的人物	-15085
结党营私	-15086
缓过神来	-15087
美其名曰	-15088
而且他还	-15089
而且十分	-15090
而且还是	-15091
而是一种	-15092
而朱祁镇	-15093
自己这个	-15094
至理名言	-15095
舍生取义	-15096
苦苦思索	-15097
蓟辽总督	-15098
见势不妙	-15099
许多人的	-15100
说话算数	-15101
读书人的	-15102
贴身太监	-15103
赤膊上阵	-15104
赫图阿拉	-15105
走到半路	-15106
趁人不备	-15107
跑来跑去	-15108
跟皇太极	-15109
跪在地上	-15110
跳了起来	-15111
转了一圈	-15112
还是相当	-15113
这一目的	-15114
这个位置	-15115
这个帝国	-15116
这个所谓	-15117
这个答案	-15118
这个要求	-15119
这么多的	-15120
这实在是	-15121
这支队伍	-15122
这是一件	-15123
这是一句	-15124
这是他的	-15125
这样看来	-15126
这段时间	-15127
这里就是	-15128
连他自己	-15129
那意思是	-15130
随身携带	-15131
面子问题	-15132
顾命大臣	-15133
骇人听闻	-15134
高丽国王	-15135
鬼才知道	-15136
麻烦大了	-15137
▁下面我们	-15138
▁之所以说	-15139
▁事到如今	-15140
▁但问题是	-15141
▁因为他的	-15142
▁对于这一	-15143
▁我们之前	-15144
▁朱元璋在	-15145
▁话说回来	-15146
▁这么看来	-15147
▁这是一件	-15148
▁这是一封	-15149
▁这还不算	-15150
▁问题在于	-15151
三法司会审	-15152
上了自己的	-15153
不得不佩服	-15154
东阁大学士	-15155
为了自己的	-15156
义无反顾地	-15157
也不会想到	-15158
事实的真相	-15159
事情的真相	-15160
二话不说就	-15161
什么也没有	-15162
他知道自己	-15163
付出了代价	-15164
但他并没有	-15165
做好了准备	-15166
关键的时刻	-15167
军区司令员	-15168
出了自己的	-15169
前途的工作	-15170
十余万大军	-15171
却没有丝毫	-15172
发动了攻击	-15173
可问题在于	-15174
后果很严重	-15175
回到了京城	-15176
在历史上的	-15177
在这个人的	-15178
大摇大摆地	-15179
奇怪的现象	-15180
如此重要的	-15181
对他们而言	-15182
小早川隆景	-15183
就是今天的	-15184
就没有什么	-15185
已经知道了	-15186
应该算是个	-15187
形成了一个	-15188
彻底崩溃了	-15189
得不亦乐乎	-15190
得出了一个	-15191
微不足道的	-15192
忽兰忽失温	-15193
意思很明白	-15194
我们有必要	-15195
手中的权力	-15196
改变自己的	-15197
是一个好人	-15198
是一个比较	-15199
是吏部尚书	-15200
是因为他的	-15201
是绝对不会	-15202
最后的决战	-15203
月二十三日	-15204
朱元璋手下	-15205
某个角度讲	-15206
残酷的现实	-15207
的一举一动	-15208
的一件事情	-15209
的关系很好	-15210
的眼光看着	-15211
的还在后面	-15212
皇帝的命令	-15213
直到有一天	-15214
真正的敌人	-15215
真正的英雄	-15216
眼前的这座	-15217
礼部给事中	-15218
科都给事中	-15219
经历了无数	-15220
自己的努力	-15221
致命的打击	-15222
解决问题的	-15223
这二位仁兄	-15224
隐藏着一个	-15225
鼎鼎大名的	-15226
(1561)	-15227
(1636)	-15228
▁但无论如何	-15229
▁更麻烦的是	-15230
东厂提督太监	-15231
也就是所谓的	-15232
众目睽睽之下	-15233
但他没有想到	-15234
历史告诉我们	-15235
啼笑皆非的是	-15236
因为这个原因	-15237
在很多人看来	-15238
地球人都知道	-15239
如入无人之境	-15240
就是这样一个	-15241
很快就传到了	-15242
徐达和常遇春	-15243
打得落花流水	-15244
是不折不扣的	-15245
是名副其实的	-15246
更为难得的是	-15247
生活作风问题	-15248
自然不在话下	-15249
让人匪夷所思	-15250
让人难以理解	-15251
锦衣卫指挥使	-15252
·】	-15253
▁两	-15254
▁全	-15255
▁古	-15256
▁后	-15257
▁把	-15258
▁等	-15259
一会	-15260
一应	-15261
一想	-15262
一战	-15263
一拨	-15264
一文	-15265
一族	-15266
一月	-15267
一查	-15268
一进	-15269
七万	-15270
万三	-15271
万千	-15272
万谢	-15273
三层	-15274
三长	-15275
下发	-15276
不予	-15277
不厌	-15278
不复	-15279
不宁	-15280
不容	-15281
不就	-15282
不息	-15283
不抢	-15284
不支	-15285
不欲	-15286
不测	-15287
不熟	-15288
不留	-15289
不移	-15290
不老	-15291
不自	-15292
不觉	-15293
不费	-15294
不轻	-15295
不进	-15296
不迫	-15297
不适	-15298
世的	-15299
丢失	-15300
两短	-15301
严刑	-15302
严峻	-15303
严禁	-15304
丧气	-15305
中途	-15306
丰厚	-15307
串门	-15308
为观	-15309
主战	-15310
主谋	-15311
丽的	-15312
举止	-15313
义军	-15314
之久	-15315
之功	-15316
之家	-15317
之策	-15318
也敢	-15319
也未	-15320
也比	-15321
买个	-15322
乾学	-15323
争了	-15324
事儿	-15325
事态	-15326
二净	-15327
亏待	-15328
五代	-15329
五虎	-15330
亡于	-15331
交接	-15332
交际	-15333
亨通	-15334
人在	-15335
人臣	-15336
从前	-15337
从宽	-15338
他偏	-15339
他既	-15340
他此	-15341
他见	-15342
以致	-15343
任人	-15344
任期	-15345
任由	-15346
仿照	-15347
会见	-15348
传令	-15349
伯爵	-15350
伯耆	-15351
伸手	-15352
但其	-15353
低的	-15354
体制	-15355
体力	-15356
体谅	-15357
何乐	-15358
何用	-15359
余姚	-15360
余里	-15361
作业	-15362
作乐	-15363
作乱	-15364
作恶	-15365
你可	-15366
你将	-15367
供应	-15368
便会	-15369
便利	-15370
便对	-15371
保全	-15372
保存	-15373
保密	-15374
保险	-15375
修了	-15376
修的	-15377
倒不	-15378
倒腾	-15379
倭奴	-15380
偏巧	-15381
偏远	-15382
偷懒	-15383
偿命	-15384
儿女	-15385
元将	-15386
元气	-15387
充当	-15388
先要	-15389
光凭	-15390
光着	-15391
免去	-15392
免官	-15393
免费	-15394
兔子	-15395
入伙	-15396
入室	-15397
入骨	-15398
全意	-15399
全盘	-15400
八旗	-15401
八里	-15402
公斤	-15403
兰博	-15404
关的	-15405
兴亡	-15406
兴叹	-15407
兴安	-15408
兴致	-15409
兴衰	-15410
典范	-15411
兼备	-15412
再加	-15413
再多	-15414
再玩	-15415
再见	-15416
再讲	-15417
写书	-15418
写出	-15419
军粮	-15420
冤案	-15421
冲冲	-15422
冲垮	-15423
冷的	-15424
几经	-15425
几路	-15426
凭着	-15427
凶恶	-15428
凶残	-15429
出口	-15430
出处	-15431
出此	-15432
出游	-15433
出离	-15434
出航	-15435
击伤	-15436
分工	-15437
分流	-15438
划算	-15439
刘备	-15440
刘邦	-15441
创立	-15442
判决	-15443
别再	-15444
刮风	-15445
制胜	-15446
刺客	-15447
削去	-15448
前嫌	-15449
功于	-15450
加点	-15451
动刀	-15452
勇将	-15453
勤劳	-15454
化为	-15455
北宋	-15456
医治	-15457
千恩	-15458
午谷	-15459
午门	-15460
半死	-15461
印章	-15462
危害	-15463
危难	-15464
却与	-15465
却仍	-15466
却对	-15467
却将	-15468
却把	-15469
却连	-15470
厉风	-15471
压倒	-15472
原文	-15473
原谅	-15474
去过	-15475
又把	-15476
友情	-15477
反差	-15478
反悔	-15479
反掌	-15480
发无	-15481
发热	-15482
取名	-15483
口头	-15484
口才	-15485
古板	-15486
古董	-15487
叩头	-15488
召回	-15489
可击	-15490
可攻	-15491
可这	-15492
史学	-15493
史载	-15494
号角	-15495
司马	-15496
叹服	-15497
吃穿	-15498
吆喝	-15499
合谋	-15500
同朝	-15501
名满	-15502
名誉	-15503
后门	-15504
后院	-15505
吟诗	-15506
否定	-15507
否认	-15508
听命	-15509
吴杰	-15510
员工	-15511
周到	-15512
呼百	-15513
和张	-15514
和林	-15515
和睦	-15516
咬定	-15517
哪位	-15518
哭泣	-15519
哭诉	-15520
唉声	-15521
唾弃	-15522
啥事	-15523
善人	-15524
喊杀	-15525
喝得	-15526
嘉兴	-15527
嘉奖	-15528
器重	-15529
四天	-15530
四朝	-15531
四次	-15532
四面	-15533
土崩	-15534
在野	-15535
地产	-15536
地看	-15537
坏的	-15538
坐下	-15539
型的	-15540
堂兄	-15541
堂而	-15542
堵住	-15543
境地	-15544
壮观	-15545
处置	-15546
处长	-15547
备至	-15548
复核	-15549
夏正	-15550
外援	-15551
外来	-15552
多吃	-15553
大亏	-15554
大亨	-15555
大众	-15556
大出	-15557
大叔	-15558
大变	-15559
大地	-15560
大度	-15561
大水	-15562
大礼	-15563
大腕	-15564
大雨	-15565
天字	-15566
天盖	-15567
天资	-15568
太宗	-15569
太极	-15570
太阳	-15571
夭折	-15572
失地	-15573
奔波	-15574
奸商	-15575
奸恶	-15576
她们	-15577
好啊	-15578
好色	-15579
如期	-15580
妇孺	-15581
妖风	-15582
姐姐	-15583
威严	-15584
威武	-15585
婚姻	-15586
孝敬	-15587
孝陵	-15588
孝顺	-15589
完善	-15590
完整	-15591
宗教	-15592
宗礼	-15593
官应	-15594
宝贵	-15595
实干	-15596
实权	-15597
审查	-15598
审阅	-15599
宣读	-15600
宫城	-15601
宽广	-15602
寒风	-15603
对峙	-15604
寻求	-15605
导弹	-15606
导火	-15607
封官	-15608
将士	-15609
将此	-15610
将由	-15611
将被	-15612
小偷	-15613
小可	-15614
小名	-15615
小看	-15616
小股	-15617
少了	-15618
尔耕	-15619
就义	-15620
就又	-15621
就如	-15622
就很	-15623
就砍	-15624
就等	-15625
就范	-15626
尸首	-15627
尽早	-15628
尽脑	-15629
尽量	-15630
屏障	-15631
属地	-15632
山寨	-15633
峰造	-15634
巨响	-15635
帅旗	-15636
师生	-15637
带去	-15638
带给	-15639
帮着	-15640
常规	-15641
幕僚	-15642
年底	-15643
并以	-15644
并肩	-15645
广告	-15646
庆成	-15647
底牌	-15648
庚戍	-15649
府邸	-15650
废人	-15651
廖庄	-15652
延龄	-15653
廷元	-15654
异己	-15655
异禀	-15656
异类	-15657
弘光	-15658
张士	-15659
张胆	-15660
弥陀	-15661
弱者	-15662
强干	-15663
当事	-15664
当你	-15665
当家	-15666
当权	-15667
形状	-15668
往里	-15669
待查	-15670
很差	-15671
很远	-15672
徐文	-15673
得势	-15674
心灵	-15675
心甘	-15676
心胸	-15677
心裁	-15678
必取	-15679
忍辱	-15680
忐忑	-15681
忙于	-15682
忠心	-15683
忠良	-15684
念经	-15685
怀念	-15686
怀柔	-15687
急促	-15688
急躁	-15689
恩怨	-15690
恶整	-15691
恶气	-15692
恶煞	-15693
悲凉	-15694
情谊	-15695
惧怕	-15696
惩处	-15697
惩戒	-15698
想不	-15699
想干	-15700
想打	-15701
意赅	-15702
感恩	-15703
感想	-15704
愤青	-15705
慌忙	-15706
懦弱	-15707
戈铁	-15708
戏的	-15709
成仁	-15710
成河	-15711
我何	-15712
我只	-15713
我怕	-15714
我看	-15715
我虽	-15716
战时	-15717
房间	-15718
扇门	-15719
手一	-15720
手谕	-15721
才死	-15722
才行	-15723
打住	-15724
打断	-15725
打滚	-15726
打狗	-15727
打赢	-15728
打起	-15729
扫除	-15730
扯了	-15731
批改	-15732
批驳	-15733
承禄	-15734
把刀	-15735
把她	-15736
抓瞎	-15737
抓走	-15738
投身	-15739
抖擞	-15740
抗命	-15741
抢个	-15742
抢完	-15743
抵御	-15744
抽调	-15745
拉到	-15746
拉撒	-15747
拍马	-15748
拔刀	-15749
拔河	-15750
拖欠	-15751
拖着	-15752
招人	-15753
招供	-15754
拜佛	-15755
拿下	-15756
持久	-15757
指日	-15758
按此	-15759
挡路	-15760
挨打	-15761
挨骂	-15762
挫折	-15763
挺住	-15764
换成	-15765
掐架	-15766
排队	-15767
推广	-15768
掩饰	-15769
提及	-15770
揭示	-15771
摆出	-15772
摸清	-15773
操劳	-15774
支柱	-15775
收手	-15776
改姓	-15777
改日	-15778
攻略	-15779
放出	-15780
故宫	-15781
故我	-15782
敌对	-15783
敏感	-15784
教科	-15785
散伙	-15786
散去	-15787
散朝	-15788
敬业	-15789
数日	-15790
整肃	-15791
文弱	-15792
斩获	-15793
断定	-15794
断绝	-15795
断言	-15796
新官	-15797
新意	-15798
无天	-15799
无常	-15800
无援	-15801
无理	-15802
无礼	-15803
日益	-15804
早年	-15805
早晨	-15806
早朝	-15807
时年	-15808
时春	-15809
明目	-15810
易如	-15811
易守	-15812
是再	-15813
是搞	-15814
是讲	-15815
晋升	-15816
晚辈	-15817
暗藏	-15818
暴躁	-15819
更待	-15820
更改	-15821
更狠	-15822
有他	-15823
有份	-15824
有好	-15825
服装	-15826
未卜	-15827
本就	-15828
本想	-15829
本该	-15830
朱勇	-15831
机要	-15832
杀出	-15833
杀降	-15834
杀鸡	-15835
李四	-15836
来吧	-15837
来抓	-15838
来投	-15839
来来	-15840
杨宪	-15841
板上	-15842
柿子	-15843
案中	-15844
案卷	-15845
梦幻	-15846
检阅	-15847
植物	-15848
横流	-15849
欲动	-15850
欺人	-15851
正厅	-15852
正史	-15853
正派	-15854
此举	-15855
步伐	-15856
步步	-15857
歹说	-15858
歼敌	-15859
毁掉	-15860
水战	-15861
水流	-15862
永别	-15863
汉中	-15864
汉字	-15865
江水	-15866
江陵	-15867
污浊	-15868
沂王	-15869
沉稳	-15870
沙子	-15871
没干	-15872
没用	-15873
油诗	-15874
沿路	-15875
法令	-15876
法的	-15877
波澜	-15878
注明	-15879
洛海	-15880
活到	-15881
派来	-15882
流泪	-15883
流行	-15884
浑似	-15885
海域	-15886
海岛	-15887
海水	-15888
海的	-15889
深宫	-15890
混蛋	-15891
清静	-15892
渡江	-15893
温暖	-15894
湖南	-15895
源于	-15896
滋润	-15897
满腔	-15898
滴水	-15899
漏了	-15900
漕运	-15901
潜伏	-15902
激奋	-15903
火箭	-15904
火车	-15905
炮响	-15906
热爱	-15907
焕发	-15908
煎熬	-15909
照样	-15910
熟知	-15911
熟练	-15912
熬到	-15913
熹宗	-15914
爆炸	-15915
片中	-15916
牢饭	-15917
物资	-15918
牵挂	-15919
牵连	-15920
独裁	-15921
猎物	-15922
王山	-15923
王弼	-15924
王朱	-15925
王杲	-15926
王竑	-15927
玩弄	-15928
玩玩	-15929
现状	-15930
班子	-15931
班底	-15932
理学	-15933
甘愿	-15934
生下	-15935
生计	-15936
用人	-15937
用过	-15938
田赋	-15939
由衷	-15940
电脑	-15941
画的	-15942
留个	-15943
留给	-15944
疏漏	-15945
疲于	-15946
疾苦	-15947
病情	-15948
痕迹	-15949
痛心	-15950
白费	-15951
百花	-15952
的官	-15953
的总	-15954
的脸	-15955
盖世	-15956
盛的	-15957
直指	-15958
省略	-15959
看书	-15960
看人	-15961
真叫	-15962
真心	-15963
眨眼	-15964
眼熟	-15965
着脸	-15966
睡着	-15967
督促	-15968
知己	-15969
石灰	-15970
研习	-15971
破竹	-15972
破船	-15973
破解	-15974
硬是	-15975
确是	-15976
碎了	-15977
磨练	-15978
祖母	-15979
祝贺	-15980
神奇	-15981
祸患	-15982
福王	-15983
秉忠	-15984
种类	-15985
科长	-15986
积聚	-15987
积蓄	-15988
称职	-15989
稳住	-15990
空旷	-15991
穿上	-15992
窘境	-15993
立有	-15994
童话	-15995
竭力	-15996
策论	-15997
管了	-15998
籍贯	-15999
精良	-16000
素来	-16001
累死	-16002
纠纷	-16003
红包	-16004
红夷	-16005
约束	-16006
纪纲	-16007
纸张	-16008
结尾	-16009
绝世	-16010
统率	-16011
绳索	-16012
缔造	-16013
编剧	-16014
缺钱	-16015
罗通	-16016
羞耻	-16017
群情	-16018
群架	-16019
群殴	-16020
翊钧	-16021
耀武	-16022
老几	-16023
老话	-16024
考勤	-16025
而以	-16026
而我	-16027
而知	-16028
而行	-16029
而论	-16030
而退	-16031
耳光	-16032
聪慧	-16033
肥差	-16034
肯干	-16035
背锅	-16036
胜券	-16037
能耐	-16038
脚下	-16039
脱欢	-16040
脱颖	-16041
腻了	-16042
自他	-16043
自作	-16044
自保	-16045
自卑	-16046
自取	-16047
自用	-16048
自立	-16049
自认	-16050
舅舅	-16051
舟山	-16052
船头	-16053
艰辛	-16054
色地	-16055
节目	-16056
苟且	-16057
草草	-16058
营中	-16059
营救	-16060
落款	-16061
葬身	-16062
蒋州	-16063
蔑视	-16064
虚的	-16065
蛐蛐	-16066
融洽	-16067
蠢蠢	-16068
血肉	-16069
行事	-16070
行当	-16071
行得	-16072
补了	-16073
补给	-16074
被子	-16075
被害	-16076
被骂	-16077
裁决	-16078
要了	-16079
要地	-16080
要比	-16081
要跟	-16082
见惯	-16083
见鬼	-16084
观光	-16085
观童	-16086
解围	-16087
言简	-16088
言论	-16089
誓言	-16090
认同	-16091
议事	-16092
记在	-16093
讲的	-16094
讲话	-16095
许愿	-16096
许诺	-16097
证人	-16098
评定	-16099
识字	-16100
词句	-16101
诗词	-16102
说去	-16103
说错	-16104
请愿	-16105
谁是	-16106
调侃	-16107
调转	-16108
谎言	-16109
谩骂	-16110
谴责	-16111
豆腐	-16112
豪宅	-16113
豹子	-16114
败局	-16115
货物	-16116
货色	-16117
贫寒	-16118
贫苦	-16119
贬为	-16120
贴切	-16121
贵为	-16122
费尽	-16123
赖着	-16124
赤裸	-16125
赵全	-16126
赶上	-16127
起到	-16128
起劲	-16129
起步	-16130
起见	-16131
趁势	-16132
趁早	-16133
超人	-16134
越南	-16135
越的	-16136
越说	-16137
越远	-16138
足可	-16139
路人	-16140
跳脚	-16141
跳进	-16142
转而	-16143
轮番	-16144
软的	-16145
轰顶	-16146
辅政	-16147
边缘	-16148
过失	-16149
迎合	-16150
近郊	-16151
还兼	-16152
还说	-16153
这不	-16154
这倒	-16155
这出	-16156
这在	-16157
进程	-16158
远播	-16159
连串	-16160
连环	-16161
迢迢	-16162
迫害	-16163
追了	-16164
追兵	-16165
送去	-16166
送的	-16167
逃了	-16168
选拔	-16169
通力	-16170
通商	-16171
通道	-16172
逝世	-16173
逢源	-16174
遏制	-16175
道学	-16176
遗余	-16177
遗臭	-16178
部位	-16179
部属	-16180
郭兴	-16181
都城	-16182
都来	-16183
都难	-16184
酒色	-16185
采石	-16186
采购	-16187
采集	-16188
重创	-16189
重建	-16190
重权	-16191
重负	-16192
野蛮	-16193
钢铁	-16194
镣铐	-16195
长久	-16196
长处	-16197
长随	-16198
阁老	-16199
阅兵	-16200
队员	-16201
队的	-16202
队长	-16203
阴森	-16204
阵的	-16205
阵营	-16206
阶级	-16207
阻击	-16208
陈述	-16209
随口	-16210
隐约	-16211
难为	-16212
难关	-16213
难逃	-16214
雄才	-16215
雍正	-16216
震慑	-16217
霍光	-16218
霞客	-16219
面上	-16220
靶子	-16221
鞑官	-16222
鞭炮	-16223
韬略	-16224
顺义	-16225
预想	-16226
预知	-16227
风度	-16228
风沙	-16229
风流	-16230
风的	-16231
饭菜	-16232
驱使	-16233
驳回	-16234
骗子	-16235
高人	-16236
高傲	-16237
高强	-16238
高高	-16239
黄昏	-16240
黑钱	-16241
鼻血	-16242
齐射	-16243
)?”	-16244
000	-16245
140	-16246
▁【·	-16247
▁不久	-16248
▁不要	-16249
▁五月	-16250
▁他用	-16251
▁你要	-16252
▁刘健	-16253
▁命令	-16254
▁回答	-16255
▁因此	-16256
▁大明	-16257
▁大臣	-16258
▁天顺	-16259
▁好在	-16260
▁孙镗	-16261
▁宣德	-16262
▁张信	-16263
▁徐珵	-16264
▁总兵	-16265
▁我想	-16266
▁战后	-16267
▁接到	-16268
▁杨镐	-16269
▁桂萼	-16270
▁沈链	-16271
▁清军	-16272
▁满桂	-16273
▁站在	-16274
▁老子	-16275
▁而要	-16276
▁解决	-16277
▁说是	-16278
▁辽东	-16279
▁过了	-16280
▁这帮	-16281
▁那个	-16282
▁阴谋	-16283
一万一	-16284
一个准	-16285
一回事	-16286
一年前	-16287
一年的	-16288
一把火	-16289
一方面	-16290
一无所	-16291
一番话	-16292
一百年	-16293
一直到	-16294
一路往	-16295
一边说	-16296
七年的	-16297
万恶的	-16298
三十万	-16299
三大征	-16300
上万名	-16301
上了瘾	-16302
上千里	-16303
上来的	-16304
上百年	-16305
不买账	-16306
不停蹄	-16307
不允许	-16308
不去了	-16309
不如前	-16310
不如死	-16311
不开窍	-16312
不得的	-16313
不死的	-16314
不清楚	-16315
不至于	-16316
不行的	-16317
不过他	-16318
不重要	-16319
与之前	-16320
与倭寇	-16321
与对方	-16322
与徐阶	-16323
世界的	-16324
东华门	-16325
两万人	-16326
两人的	-16327
两句话	-16328
两百多	-16329
严嵩和	-16330
为万人	-16331
为观止	-16332
为这个	-16333
主审官	-16334
之后他	-16335
之路上	-16336
也不对	-16337
也不断	-16338
也不知	-16339
也从不	-16340
也并不	-16341
也死了	-16342
也没用	-16343
也没钱	-16344
也罢了	-16345
也能够	-16346
也跟着	-16347
也还是	-16348
了一套	-16349
了一跳	-16350
了上去	-16351
了那个	-16352
事件中	-16353
二十四	-16354
于是便	-16355
于永乐	-16356
五十余	-16357
五百人	-16358
人死了	-16359
人说梦	-16360
什么样	-16361
今后的	-16362
今湖北	-16363
他一个	-16364
他人生	-16365
他从未	-16366
他们会	-16367
他决心	-16368
他利用	-16369
他到底	-16370
他只好	-16371
他召集	-16372
他可能	-16373
他已然	-16374
他特意	-16375
他现在	-16376
他看见	-16377
他继续	-16378
他表示	-16379
他觉得	-16380
他认定	-16381
他还在	-16382
他这一	-16383
他进入	-16384
他逐渐	-16385
他都没	-16386
代价的	-16387
以为意	-16388
以达到	-16389
估计到	-16390
似乎不	-16391
但仍然	-16392
但他更	-16393
但凡有	-16394
但可以	-16395
但就是	-16396
但徐阶	-16397
但皇帝	-16398
但这事	-16399
但除了	-16400
住进了	-16401
作用的	-16402
你不是	-16403
你不用	-16404
你还不	-16405
你还能	-16406
便下令	-16407
便决定	-16408
便开始	-16409
倒是很	-16410
偏偏要	-16411
做木匠	-16412
停下了	-16413
停住了	-16414
兄弟我	-16415
先不要	-16416
光明磊	-16417
入内阁	-16418
全天下	-16419
全部被	-16420
八个月	-16421
其实是	-16422
冲击力	-16423
决心和	-16424
准备的	-16425
凑合了	-16426
出一个	-16427
出征了	-16428
出现过	-16429
出生于	-16430
刘御史	-16431
利用了	-16432
别无他	-16433
到万历	-16434
到北京	-16435
到处走	-16436
到处跑	-16437
到底想	-16438
制定的	-16439
前面的	-16440
副校长	-16441
化建议	-16442
十一章	-16443
十三道	-16444
十二章	-16445
十五万	-16446
十五章	-16447
十六岁	-16448
千余人	-16449
升到了	-16450
升官了	-16451
博罗茂	-16452
占优势	-16453
印象中	-16454
却不能	-16455
却只有	-16456
却开始	-16457
却是他	-16458
却更为	-16459
压根儿	-16460
压根就	-16461
去寻找	-16462
去找人	-16463
去攻击	-16464
发明了	-16465
受到的	-16466
受害者	-16467
叛军的	-16468
只能说	-16469
召开了	-16470
可以去	-16471
可当他	-16472
吃了亏	-16473
吃尽了	-16474
吃空额	-16475
各地的	-16476
同志在	-16477
后来还	-16478
听他的	-16479
听到的	-16480
听说了	-16481
听起来	-16482
呼百应	-16483
命名为	-16484
和一个	-16485
和信念	-16486
和朱赓	-16487
和桂萼	-16488
喊出了	-16489
四处乱	-16490
回头了	-16491
回头路	-16492
团团转	-16493
围住了	-16494
在今天	-16495
在内的	-16496
在城内	-16497
在得到	-16498
在此时	-16499
在永乐	-16500
在经历	-16501
地方的	-16502
地盘上	-16503
坚强的	-16504
型人才	-16505
城中的	-16506
城墙上	-16507
城墙的	-16508
堂而皇	-16509
士兵和	-16510
夏首辅	-16511
多才多	-16512
多邦城	-16513
大人们	-16514
大本营	-16515
大致有	-16516
天真地	-16517
天雄军	-16518
失败后	-16519
头上司	-16520
头支票	-16521
奏疏上	-16522
好意思	-16523
好歹是	-16524
如果我	-16525
如果把	-16526
如果没	-16527
如果用	-16528
子午谷	-16529
存在于	-16530
孤灯下	-16531
宁前道	-16532
守军的	-16533
完之后	-16534
完全是	-16535
完成的	-16536
官员都	-16537
官应震	-16538
定年号	-16539
宝座上	-16540
实在的	-16541
宴会上	-16542
宿命的	-16543
对太子	-16544
寺少卿	-16545
寺庙里	-16546
少数派	-16547
就明白	-16548
就是我	-16549
就此被	-16550
就立刻	-16551
就被人	-16552
就走了	-16553
就跑了	-16554
尽脑汁	-16555
岁月中	-16556
峰造极	-16557
崇祯也	-16558
已经在	-16559
已经有	-16560
带领着	-16561
干掉他	-16562
平壤城	-16563
并亲自	-16564
并开始	-16565
并成为	-16566
幸福的	-16567
幽默感	-16568
应该算	-16569
弥陀佛	-16570
归他管	-16571
当回事	-16572
当成了	-16573
往上爬	-16574
往往会	-16575
很复杂	-16576
很聪明	-16577
徐应元	-16578
徐达军	-16579
得如此	-16580
得意了	-16581
心学的	-16582
心黑手	-16583
忍受的	-16584
怀揣着	-16585
怎么就	-16586
急眼了	-16587
想当年	-16588
想明白	-16589
想要的	-16590
感受到	-16591
懈可击	-16592
戏剧性	-16593
我一直	-16594
戚将军	-16595
手上的	-16596
才是正	-16597
才真正	-16598
打下去	-16599
打断了	-16600
打来打	-16601
找到他	-16602
把敌人	-16603
投机取	-16604
投降后	-16605
抗击打	-16606
折腾去	-16607
折腾来	-16608
抚恤金	-16609
抢劫犯	-16610
抢来的	-16611
报告了	-16612
担心的	-16613
拉住了	-16614
拉开了	-16615
择手段	-16616
拿工资	-16617
指使的	-16618
指导下	-16619
指日可	-16620
挑选了	-16621
捞不到	-16622
换来的	-16623
据某些	-16624
据统计	-16625
接待了	-16626
接替了	-16627
掩护下	-16628
提到过	-16629
提拔为	-16630
支撑着	-16631
收下了	-16632
放下了	-16633
数十人	-16634
无私的	-16635
时候了	-16636
是个有	-16637
是中国	-16638
是多么	-16639
是我们	-16640
是无数	-16641
是日本	-16642
是浙党	-16643
是第一	-16644
是迟早	-16645
是需要	-16646
是高拱	-16647
普通话	-16648
智商和	-16649
暂时的	-16650
曾反复	-16651
最困难	-16652
最终也	-16653
最终却	-16654
月初一	-16655
有一万	-16656
有任何	-16657
有危险	-16658
有多少	-16659
有心人	-16660
有成效	-16661
有效的	-16662
未必是	-16663
未必能	-16664
朱大典	-16665
朱寘鐇	-16666
朱木匠	-16667
朱棣又	-16668
李梦阳	-16669
李献可	-16670
来一个	-16671
杨方亨	-16672
架云梯	-16673
根据地	-16674
梃击案	-16675
欺负的	-16676
正七品	-16677
正五品	-16678
正常了	-16679
此人是	-16680
死去的	-16681
每一次	-16682
每次都	-16683
比如说	-16684
比皇帝	-16685
毛承禄	-16686
毫发无	-16687
沈万三	-16688
没关系	-16689
没料到	-16690
没用的	-16691
泄不通	-16692
派人来	-16693
浓厚的	-16694
海大人	-16695
海阎王	-16696
混下去	-16697
混到了	-16698
清楚了	-16699
漫不经	-16700
激动的	-16701
热闹了	-16702
爬上了	-16703
爬起来	-16704
特别能	-16705
狗血淋	-16706
用什么	-16707
田尔耕	-16708
白痴的	-16709
的一面	-16710
的买卖	-16711
的人却	-16712
的人啊	-16713
的人就	-16714
的动机	-16715
的厉害	-16716
的史料	-16717
的后面	-16718
的地主	-16719
的城门	-16720
的大事	-16721
的奏章	-16722
的妃子	-16723
的官职	-16724
的小事	-16725
的年代	-16726
的建议	-16727
的强盗	-16728
的战友	-16729
的房子	-16730
的武将	-16731
的气氛	-16732
的矛盾	-16733
的离去	-16734
的终点	-16735
的背影	-16736
的脸上	-16737
的英雄	-16738
的衣服	-16739
的记录	-16740
的身影	-16741
的还有	-16742
的那句	-16743
的重点	-16744
的面孔	-16745
皇上你	-16746
盛庸的	-16747
相信了	-16748
相当高	-16749
相比的	-16750
看出来	-16751
看着办	-16752
真是不	-16753
真的是	-16754
瞧不上	-16755
石亨的	-16756
社会上	-16757
科进士	-16758
稳住了	-16759
空前绝	-16760
立一个	-16761
立牌坊	-16762
站在了	-16763
笑着对	-16764
第一步	-16765
第三种	-16766
笼罩着	-16767
管不了	-16768
管理员	-16769
紧紧地	-16770
给忘了	-16771
给这些	-16772
罗大纮	-16773
老前辈	-16774
老实点	-16775
老实的	-16776
老本行	-16777
而也先	-16778
而易举	-16779
而根据	-16780
而这次	-16781
耍威风	-16782
耐烦了	-16783
胜利了	-16784
能干的	-16785
自己不	-16786
自己将	-16787
自己所	-16788
自知之	-16789
落到了	-16790
虽然不	-16791
虽说是	-16792
行为的	-16793
表示了	-16794
被人打	-16795
被击败	-16796
被授予	-16797
被皇帝	-16798
被赶出	-16799
被选为	-16800
装糊涂	-16801
裴伯耆	-16802
要他们	-16803
要学习	-16804
见不到	-16805
计划的	-16806
认识的	-16807
让人家	-16808
记下了	-16809
说两句	-16810
说明了	-16811
说的话	-16812
读兵书	-16813
谁让你	-16814
谈话中	-16815
贪污的	-16816
资本的	-16817
赶上了	-16818
赶不上	-16819
起了头	-16820
起居注	-16821
跑过来	-16822
转向了	-16823
转折点	-16824
软柿子	-16825
辉煌的	-16826
过无数	-16827
还专门	-16828
还以为	-16829
还是先	-16830
还是老	-16831
还没到	-16832
这个老	-16833
这么一	-16834
这些事	-16835
这兄弟	-16836
这孩子	-16837
这就叫	-16838
这是很	-16839
送信人	-16840
送来的	-16841
逃到了	-16842
逃跑了	-16843
逃跑的	-16844
通政司	-16845
造成了	-16846
逮捕了	-16847
避风头	-16848
那几个	-16849
郑士利	-16850
部下们	-16851
都不去	-16852
都可能	-16853
都是他	-16854
都是老	-16855
都有数	-16856
都没法	-16857
都被他	-16858
金戈铁	-16859
铁三角	-16860
铺天盖	-16861
镇守者	-16862
长大的	-16863
闭上了	-16864
阉党的	-16865
雷厉风	-16866
青史留	-16867
靠不住	-16868
风暴雨	-16869
风雨雨	-16870
首先是	-16871
驻扎在	-16872
高兴了	-16873
高兴的	-16874
高学士	-16875
高明的	-16876
高皇帝	-16877
鬼门关	-16878
魔鬼怪	-16879
黑材料	-16880
▁一定要	-16881
▁从这个	-16882
▁他们的	-16883
▁伟大的	-16884
▁但他们	-16885
▁但当他	-16886
▁十几年	-16887
▁可这位	-16888
▁在很多	-16889
▁在我们	-16890
▁在经过	-16891
▁姚广孝	-16892
▁宋应昌	-16893
▁常遇春	-16894
▁我觉得	-16895
▁所以从	-16896
▁明光宗	-16897
▁正月十	-16898
▁没有人	-16899
▁消息传	-16900
▁然而在	-16901
▁熊文灿	-16902
▁王世贞	-16903
▁王在晋	-16904
▁皇帝的	-16905
▁第一章	-16906
▁第七章	-16907
▁第三章	-16908
▁第九章	-16909
▁第二章	-16910
▁第五章	-16911
▁第八章	-16912
▁第六章	-16913
▁第十章	-16914
▁第四章	-16915
▁这二位	-16916
▁这真是	-16917
▁随从们	-16918
▁首先是	-16919
一个新的	-16920
一个月前	-16921
一举中第	-16922
一举歼灭	-16923
一件大事	-16924
一动不动	-16925
一天天地	-16926
一干二净	-16927
一片混乱	-16928
一盘散沙	-16929
一直打到	-16930
一视同仁	-16931
万两银子	-16932
万历皇帝	-16933
三万多人	-16934
三十余年	-16935
三十六营	-16936
三长两短	-16937
上千年的	-16938
不了多少	-16939
不会放过	-16940
不可战胜	-16941
不可能了	-16942
不够意思	-16943
不容易的	-16944
不折不扣	-16945
不能不说	-16946
不能得罪	-16947
不要命的	-16948
不过是一	-16949
与他一同	-16950
专横跋扈	-16951
专用名词	-16952
两万余人	-16953
严嵩已经	-16954
为了生存	-16955
为朱元璋	-16956
久经沙场	-16957
乌烟瘴气	-16958
也不奇怪	-16959
也不打算	-16960
也不明白	-16961
也不需要	-16962
也很清楚	-16963
也有一个	-16964
也真算是	-16965
也算不上	-16966
也算是老	-16967
了他的心	-16968
二十七年	-16969
二百多年	-16970
五雷轰顶	-16971
人的地方	-16972
人的时候	-16973
什么人都	-16974
从古至今	-16975
从哪里来	-16976
从来都不	-16977
从来都是	-16978
他一定会	-16979
他们不会	-16980
他们中的	-16981
他们开始	-16982
他们自己	-16983
他就发现	-16984
他是不会	-16985
他的亲信	-16986
他的名声	-16987
他的命令	-16988
他的妻子	-16989
他的工作	-16990
他的所有	-16991
他的眼睛	-16992
他的祖父	-16993
他的计划	-16994
他的运气	-16995
他的这种	-16996
他的面前	-16997
他看到了	-16998
以下几种	-16999
以及所有	-17000
任何一个	-17001
传奇经历	-17002
估计早就	-17003
似乎不太	-17004
似乎毫无	-17005
但他毕竟	-17006
但更让他	-17007
你不知道	-17008
使得朱棣	-17009
侍讲学士	-17010
保持沉默	-17011
全心全意	-17012
全部兵力	-17013
全部家当	-17014
全部都是	-17015
六十多岁	-17016
关于他的	-17017
关进监狱	-17018
其实我们	-17019
准备迎接	-17020
几个时辰	-17021
几十个人	-17022
出发之前	-17023
出居庸关	-17024
别出心裁	-17025
到了地方	-17026
削职为民	-17027
前后夹击	-17028
前无古人	-17029
功德圆满	-17030
动真格的	-17031
努力工作	-17032
十七岁的	-17033
十二万人	-17034
十余万人	-17035
十分得意	-17036
十分恼火	-17037
十分愤怒	-17038
千恩万谢	-17039
千里迢迢	-17040
半壁江山	-17041
危急时刻	-17042
即将结束	-17043
历史悠久	-17044
历史的人	-17045
历史规则	-17046
厉害得多	-17047
参加乡试	-17048
又出现了	-17049
反攻倒算	-17050
发动猛攻	-17051
发挥特长	-17052
另一方面	-17053
史料上说	-17054
右都御史	-17055
叹为观止	-17056
叹息一声	-17057
吃喝拉撒	-17058
命运之神	-17059
和张士诚	-17060
哪里还有	-17061
唉声叹气	-17062
唯一可以	-17063
唾手可得	-17064
四处寻找	-17065
回去之后	-17066
因为当时	-17067
国防部长	-17068
圆满完成	-17069
土崩瓦解	-17070
圣人之言	-17071
在哪里呢	-17072
在土木堡	-17073
在此后的	-17074
在那年头	-17075
地势险要	-17076
地意识到	-17077
地方政府	-17078
地看着他	-17079
士兵们的	-17080
多管闲事	-17081
大军出发	-17082
大势已去	-17083
大概就是	-17084
天启元年	-17085
天王老子	-17086
天色已晚	-17087
天赋异禀	-17088
太子朱标	-17089
太祖实录	-17090
太过分了	-17091
失去一切	-17092
奸邪小人	-17093
她的名字	-17094
好说歹说	-17095
如果不能	-17096
如果能够	-17097
如此大的	-17098
如此看来	-17099
嫡传弟子	-17100
孙承宗的	-17101
宁王叛乱	-17102
安南国王	-17103
完全不同	-17104
完全相反	-17105
官运亨通	-17106
实事求是	-17107
实在不行	-17108
实在太不	-17109
实在太多	-17110
实在太狠	-17111
实在没法	-17112
对于一个	-17113
对于这些	-17114
就意味着	-17115
就找到了	-17116
就是因为	-17117
就走人了	-17118
屡试不爽	-17119
崇祯皇帝	-17120
已经完成	-17121
已经无法	-17122
已经被打	-17123
希望陛下	-17124
带领军队	-17125
干什么的	-17126
干净利落	-17127
平安无事	-17128
并不只是	-17129
并不过分	-17130
并不陌生	-17131
庆成郡主	-17132
庚戍之变	-17133
开动脑筋	-17134
当即下令	-17135
当年没有	-17136
形势不妙	-17137
彻底崩溃	-17138
彼此之间	-17139
很多时候	-17140
很快就被	-17141
很有特点	-17142
很难理解	-17143
徐阶已经	-17144
得出结论	-17145
心服口服	-17146
心理承受	-17147
心甘情愿	-17148
心黑手狠	-17149
必败无疑	-17150
忍辱负重	-17151
怎样才能	-17152
急匆匆地	-17153
总体而言	-17154
意志坚定	-17155
意思就是	-17156
我们将在	-17157
我看到了	-17158
战国时期	-17159
所到之处	-17160
才刚开始	-17161
找个地方	-17162
把张居正	-17163
抓了起来	-17164
抗倭援朝	-17165
拍拍屁股	-17166
指导思想	-17167
挥舞马刀	-17168
挺过来了	-17169
换了别人	-17170
接朱祁镇	-17171
摆出一副	-17172
摘录如下	-17173
撒腿就跑	-17174
支持不住	-17175
收拾包袱	-17176
攻不下来	-17177
整个辽东	-17178
整整一天	-17179
新一代的	-17180
无缘无故	-17181
无足轻重	-17182
无非是想	-17183
明目张胆	-17184
易如反掌	-17185
易守难攻	-17186
昨天晚上	-17187
是不错的	-17188
是个好人	-17189
是典型的	-17190
是很有点	-17191
是明军的	-17192
是最好的	-17193
是没有的	-17194
智勇双全	-17195
更待何时	-17196
最后一招	-17197
最后一道	-17198
最后的话	-17199
最杰出的	-17200
最终没有	-17201
最高境界	-17202
有三个人	-17203
朝中大臣	-17204
朝廷重臣	-17205
朱允炆的	-17206
朱元璋和	-17207
朱元璋对	-17208
朱圣人的	-17209
朱宸濠的	-17210
权力斗争	-17211
李舜臣的	-17212
来的时候	-17213
某些时候	-17214
根本就没	-17215
横扫天下	-17216
欢呼雀跃	-17217
正德年间	-17218
此外他还	-17219
此时正是	-17220
此时此刻	-17221
武器装备	-17222
死无葬身	-17223
死的时候	-17224
每天都要	-17225
比朱元璋	-17226
比较特殊	-17227
江彬先生	-17228
江西巡抚	-17229
没准还能	-17230
没有人敢	-17231
没有人能	-17232
没有得到	-17233
没有粮食	-17234
没来得及	-17235
没过几天	-17236
注视着他	-17237
洪武三年	-17238
派遣使臣	-17239
流传千古	-17240
流氓强盗	-17241
淮西集团	-17242
深更半夜	-17243
深陷重围	-17244
满朝文武	-17245
然而就在	-17246
特别是对	-17247
王侯将相	-17248
王保保的	-17249
王崇古的	-17250
现在已经	-17251
现在竟然	-17252
理所应当	-17253
用一句话	-17254
痛苦不堪	-17255
痴人说梦	-17256
登峰造极	-17257
的人就是	-17258
的可能性	-17259
的将领们	-17260
的戚继光	-17261
的李如松	-17262
的牺牲品	-17263
的第一步	-17264
的老头子	-17265
的那天起	-17266
皇帝也不	-17267
目标挺进	-17268
看到那些	-17269
着实不易	-17270
确实厉害	-17271
确实比较	-17272
社会青年	-17273
秋后算账	-17274
秘密武器	-17275
称呼他为	-17276
稳如泰山	-17277
究其原因	-17278
穷追猛打	-17279
立有大功	-17280
站在队伍	-17281
第一件事	-17282
第三个人	-17283
简直就是	-17284
算得上是	-17285
精明强干	-17286
精神失常	-17287
紧要关头	-17288
纳哈出的	-17289
终于到来	-17290
终于还是	-17291
经过长期	-17292
给皇帝的	-17293
给自己的	-17294
给魏忠贤	-17295
绞尽脑汁	-17296
统治时期	-17297
继承皇位	-17298
缓过劲来	-17299
置之不理	-17300
置信的是	-17301
群众基础	-17302
翰林院的	-17303
耀武扬威	-17304
考中进士	-17305
而张居正	-17306
职业道德	-17307
联系起来	-17308
聪明得多	-17309
背黑锅的	-17310
脱脱不花	-17311
自己错了	-17312
自然有人	-17313
苟且偷生	-17314
苦思冥想	-17315
英国公张	-17316
虽然自己	-17317
蠢蠢欲动	-17318
血流成河	-17319
被打破了	-17320
被无情地	-17321
言简意赅	-17322
让人费解	-17323
说他们是	-17324
说来说去	-17325
说话的人	-17326
费尽心机	-17327
赶回了家	-17328
跪拜行礼	-17329
身负重伤	-17330
躺在床上	-17331
轻而易举	-17332
达到这个	-17333
近乎疯狂	-17334
还是有点	-17335
还算不错	-17336
这个光荣	-17337
这个决定	-17338
这个女人	-17339
这个对手	-17340
这个时代	-17341
这个样子	-17342
这个称呼	-17343
这也是个	-17344
这也是他	-17345
这些行为	-17346
这件东西	-17347
这件事上	-17348
这位大爷	-17349
这帮人的	-17350
这条道路	-17351
这样才能	-17352
这道命令	-17353
迫不得已	-17354
那就真是	-17355
那是相当	-17356
都没办法	-17357
金银珠宝	-17358
钢铁战士	-17359
锦衣玉食	-17360
镇守太监	-17361
闻风丧胆	-17362
阿弥陀佛	-17363
陈友谅军	-17364
隆庆皇帝	-17365
集结完毕	-17366
非同小可	-17367
靠不住的	-17368
顶头上司	-17369
顾宪成的	-17370
风风雨雨	-17371
马不停蹄	-17372
骂了一顿	-17373
骑兵部队	-17374
高迎祥的	-17375
▁但接下来	-17376
▁但这一切	-17377
▁八月二十	-17378
▁天启二年	-17379
▁天启六年	-17380
▁对于这种	-17381
▁没办法了	-17382
▁然而这个	-17383
▁皇帝大人	-17384
▁第二十章	-17385
▁第十一章	-17386
▁第十七章	-17387
▁第十三章	-17388
▁第十九章	-17389
▁第十二章	-17390
▁第十五章	-17391
▁第十八章	-17392
▁第十六章	-17393
▁第十四章	-17394
▁要说还是	-17395
▁说到这里	-17396
▁这意思是	-17397
▁这是因为	-17398
一直以来都	-17399
不知是不是	-17400
严重的政治	-17401
也有自己的	-17402
也没有办法	-17403
了一道命令	-17404
了他所有的	-17405
了这个消息	-17406
事件的发生	-17407
他不过是个	-17408
他们分别是	-17409
他并不知道	-17410
他立刻下令	-17411
以骑兵为主	-17412
传奇的一生	-17413
但这位仁兄	-17414
你为什么要	-17415
保持了沉默	-17416
做出了决定	-17417
兵科给事中	-17418
到达了顶点	-17419
博罗茂洛海	-17420
危急的时刻	-17421
却一点也不	-17422
合理化建议	-17423
向明朝朝贡	-17424
唯一的例外	-17425
因为这个人	-17426
在他的身边	-17427
在朱元璋的	-17428
堂而皇之地	-17429
大大小小的	-17430
大家都认为	-17431
天字第一号	-17432
如往常一样	-17433
它的名字叫	-17434
实在是因为	-17435
对于他而言	-17436
就在这样的	-17437
就是后来的	-17438
就这么着吧	-17439
干出了一件	-17440
平静的生活	-17441
并不是傻瓜	-17442
张献忠先生	-17443
很有可能的	-17444
得差不多了	-17445
得知了一个	-17446
惊人的消息	-17447
成化年间的	-17448
我查了一下	-17449
抗击打能力	-17450
明代历史上	-17451
是最重要的	-17452
更大的麻烦	-17453
最为重要的	-17454
最终的胜利	-17455
有一件事情	-17456
有条不紊地	-17457
朱元璋亲自	-17458
朱宸濠先生	-17459
朱棣的军队	-17460
杀掉毛文龙	-17461
来到了京城	-17462
沉重的打击	-17463
没有丝毫的	-17464
王守仁已经	-17465
用实际行动	-17466
痛打落水狗	-17467
的人不能用	-17468
的战斗经验	-17469
的皇帝陛下	-17470
皇帝的宠信	-17471
皇帝的谕令	-17472
目前的形势	-17473
看不下去了	-17474
终于有一天	-17475
终于等到了	-17476
结结实实地	-17477
自己手下的	-17478
自己的一生	-17479
自己的丈夫	-17480
自己的名字	-17481
自己的妻子	-17482
致命的弱点	-17483
艰苦的道路	-17484
莫大的关系	-17485
蒙古贵族们	-17486
解决了问题	-17487
解决的问题	-17488
轰轰烈烈的	-17489
这不过是个	-17490
这两位仁兄	-17491
这些所谓的	-17492
这件事情的	-17493
重要的事情	-17494
露出了笑容	-17495
(1409)	-17496
▁之后的事情	-17497
▁可能有人会	-17498
▁此后的事情	-17499
▁要说明的是	-17500
一发不可收拾	-17501
了不得的人物	-17502
他终于意识到	-17503
以天下为己任	-17504
关于这个问题	-17505
兵部尚书石星	-17506
到了这个份上	-17507
到了这个时候	-17508
只是因为一个	-17509
吓得魂不附体	-17510
嘉靖三十一年	-17511
就更不用说了	-17512
开始了自己的	-17513
改变了这一切	-17514
是怎样炼成的	-17515
种种迹象表明	-17516
解决这个问题	-17517
说出了一句话	-17518
这一天的到来	-17519
这样一个问题	-17520
16	-17521
19	-17522
20	-17523
”“	-17524
▁(	-17525
▁元	-17526
▁兵	-17527
▁开	-17528
▁所	-17529
▁许	-17530
▁谭	-17531
▁跟	-17532
▁闹	-17533
一书	-17534
一了	-17535
一卒	-17536
一命	-17537
一改	-17538
一斤	-17539
一游	-17540
一筹	-17541
一败	-17542
一长	-17543
一鼓	-17544
丁斌	-17545
丁普	-17546
万民	-17547
万语	-17548
丈二	-17549
三尺	-17550
三差	-17551
上几	-17552
上加	-17553
下凡	-17554
下怀	-17555
下狱	-17556
不乱	-17557
不便	-17558
不公	-17559
不写	-17560
不决	-17561
不取	-17562
不只	-17563
不善	-17564
不喝	-17565
不带	-17566
不归	-17567
不快	-17568
不忿	-17569
不振	-17570
不漏	-17571
不畏	-17572
不离	-17573
不穿	-17574
不立	-17575
不纳	-17576
不衰	-17577
不限	-17578
不靠	-17579
不顺	-17580
与共	-17581
丑恶	-17582
世子	-17583
世王	-17584
世龙	-17585
东墙	-17586
两国	-17587
两头	-17588
两把	-17589
两派	-17590
严于	-17591
严防	-17592
个头	-17593
个屁	-17594
中山	-17595
中日	-17596
中枢	-17597
中秋	-17598
中部	-17599
中风	-17600
为右	-17601
为天	-17602
为强	-17603
为怀	-17604
为我	-17605
为时	-17606
为祸	-17607
举措	-17608
乃至	-17609
义和	-17610
之仇	-17611
之寀	-17612
之才	-17613
之而	-17614
之谜	-17615
乌合	-17616
乎其	-17617
乐趣	-17618
九人	-17619
九岁	-17620
九成	-17621
九江	-17622
也大	-17623
也对	-17624
也差	-17625
也才	-17626
也正	-17627
也给	-17628
也跑	-17629
也躲	-17630
也随	-17631
书房	-17632
书里	-17633
乱拳	-17634
乱杀	-17635
了锅	-17636
争先	-17637
争来	-17638
事前	-17639
事宜	-17640
事干	-17641
事成	-17642
于人	-17643
五次	-17644
亚洲	-17645
亡我	-17646
交差	-17647
交的	-17648
享乐	-17649
亲离	-17650
亲身	-17651
人为	-17652
人呢	-17653
人和	-17654
人外	-17655
人妖	-17656
人寻	-17657
人手	-17658
人欲	-17659
仇钺	-17660
从坟	-17661
从心	-17662
仓促	-17663
他太	-17664
他好	-17665
他自	-17666
付之	-17667
代言	-17668
以其	-17669
以赴	-17670
仪仗	-17671
价码	-17672
仿佛	-17673
休闲	-17674
众叛	-17675
众生	-17676
优待	-17677
伙子	-17678
会把	-17679
传人	-17680
传给	-17681
传话	-17682
伤口	-17683
伪造	-17684
似曾	-17685
但和	-17686
但很	-17687
但更	-17688
低贱	-17689
体统	-17690
体育	-17691
何苦	-17692
余党	-17693
你却	-17694
你又	-17695
你在	-17696
你所	-17697
你算	-17698
佳努	-17699
佼佼	-17700
使唤	-17701
使舵	-17702
使节	-17703
例行	-17704
依稀	-17705
信奉	-17706
信女	-17707
修好	-17708
修炼	-17709
俱下	-17710
倒还	-17711
假冒	-17712
假设	-17713
假象	-17714
偏不	-17715
做成	-17716
做着	-17717
健康	-17718
傀儡	-17719
元声	-17720
先前	-17721
先打	-17722
先找	-17723
光大	-17724
克思	-17725
入选	-17726
全体	-17727
全省	-17728
八人	-17729
公布	-17730
六千	-17731
兵分	-17732
其一	-17733
养育	-17734
养马	-17735
内奸	-17736
内应	-17737
内有	-17738
内线	-17739
再战	-17740
再问	-17741
写在	-17742
写好	-17743
冤情	-17744
决然	-17745
冷落	-17746
凌晨	-17747
凑了	-17748
几名	-17749
几头	-17750
凶神	-17751
出力	-17752
出外	-17753
出师	-17754
出海	-17755
出营	-17756
分宜	-17757
分封	-17758
分尸	-17759
分开	-17760
分给	-17761
切地	-17762
刑具	-17763
划脚	-17764
刘姬	-17765
刘德	-17766
刘懋	-17767
刘球	-17768
刚好	-17769
刚进	-17770
利弊	-17771
别墅	-17772
别急	-17773
到期	-17774
到访	-17775
到过	-17776
到齐	-17777
刻薄	-17778
前人	-17779
前仆	-17780
前茅	-17781
前路	-17782
剑法	-17783
力度	-17784
力赤	-17785
功业	-17786
功高	-17787
加快	-17788
加紧	-17789
加鞭	-17790
劣势	-17791
动权	-17792
动身	-17793
动辄	-17794
劫匪	-17795
勘查	-17796
募兵	-17797
勤于	-17798
勾心	-17799
匈奴	-17800
北关	-17801
匠户	-17802
千言	-17803
华山	-17804
协助	-17805
协议	-17806
单凭	-17807
单干	-17808
单挑	-17809
单枪	-17810
南平	-17811
卫士	-17812
却无	-17813
厄运	-17814
厕所	-17815
原任	-17816
去和	-17817
去拜	-17818
县丞	-17819
又少	-17820
又想	-17821
及早	-17822
反思	-17823
反扑	-17824
反省	-17825
反败	-17826
反间	-17827
发兵	-17828
发到	-17829
发发	-17830
受宠	-17831
受敌	-17832
变幻	-17833
口吻	-17834
口粮	-17835
口谕	-17836
叫板	-17837
可用	-17838
司业	-17839
吁吁	-17840
合乎	-17841
合围	-17842
吉日	-17843
同类	-17844
同行	-17845
同道	-17846
名号	-17847
名归	-17848
后着	-17849
后者	-17850
后被	-17851
向西	-17852
吞声	-17853
听我	-17854
启示	-17855
吸收	-17856
吹得	-17857
周德	-17858
味来	-17859
命题	-17860
品格	-17861
品的	-17862
哈哈	-17863
哭的	-17864
唐王	-17865
唯独	-17866
唾骂	-17867
商讨	-17868
喂鱼	-17869
善男	-17870
喜好	-17871
四鼓	-17872
回归	-17873
团圆	-17874
团营	-17875
困苦	-17876
国事	-17877
国运	-17878
土兵	-17879
土蛮	-17880
在她	-17881
地将	-17882
地段	-17883
地问	-17884
地雷	-17885
坚壁	-17886
坚韧	-17887
坦途	-17888
垂头	-17889
垄断	-17890
垫背	-17891
垮台	-17892
堂上	-17893
填膺	-17894
增强	-17895
壕沟	-17896
壮语	-17897
声和	-17898
声嘶	-17899
处以	-17900
处级	-17901
外合	-17902
外放	-17903
外敌	-17904
外的	-17905
多加	-17906
多姿	-17907
多或	-17908
多时	-17909
多达	-17910
多铎	-17911
夜的	-17912
夜间	-17913
大中	-17914
大兴	-17915
大半	-17916
大型	-17917
大案	-17918
大棒	-17919
大欢	-17920
大牢	-17921
大白	-17922
大脑	-17923
大诰	-17924
大难	-17925
天坛	-17926
天意	-17927
天明	-17928
天祐	-17929
天道	-17930
太好	-17931
太嫩	-17932
太猛	-17933
失意	-17934
失控	-17935
夹攻	-17936
奇功	-17937
奇异	-17938
奉天	-17939
奉承	-17940
奋发	-17941
奏效	-17942
奔去	-17943
奖励	-17944
女乐	-17945
她也	-17946
好坏	-17947
好意	-17948
如故	-17949
如神	-17950
如约	-17951
姓氏	-17952
婊子	-17953
嫔妃	-17954
子都	-17955
子集	-17956
孙祥	-17957
孝子	-17958
孩童	-17959
守着	-17960
宏伟	-17961
官宦	-17962
官话	-17963
定律	-17964
定期	-17965
定论	-17966
实实	-17967
实至	-17968
宫外	-17969
害了	-17970
害死	-17971
家世	-17972
家境	-17973
家子	-17974
家谱	-17975
家长	-17976
容貌	-17977
宽厚	-17978
密奏	-17979
寡不	-17980
对质	-17981
对骂	-17982
寺里	-17983
封为	-17984
封还	-17985
小妾	-17986
少师	-17987
少有	-17988
少量	-17989
尔虞	-17990
尖锐	-17991
尚宝	-17992
就上	-17993
就业	-17994
就吃	-17995
就抢	-17996
就杀	-17997
就绪	-17998
居多	-17999
屈膝	-18000
屋里	-18001
属的	-18002
屯田	-18003
山谷	-18004
崇敬	-18005
巡边	-18006
工夫	-18007
巩固	-18008
差劲	-18009
巴结	-18010
师兄	-18011
帖帖	-18012
帮我	-18013
帮派	-18014
常年	-18015
干出	-18016
干这	-18017
平素	-18018
年少	-18019
年青	-18020
并列	-18021
广洋	-18022
广阔	-18023
庆幸	-18024
应了	-18025
应声	-18026
底层	-18027
底的	-18028
庙里	-18029
府县	-18030
庶子	-18031
延误	-18032
开发	-18033
开幕	-18034
开花	-18035
开辟	-18036
异议	-18037
引为	-18038
引诱	-18039
张温	-18040
归入	-18041
当今	-18042
当我	-18043
当朝	-18044
往外	-18045
征讨	-18046
征集	-18047
待毙	-18048
很准	-18049
很早	-18050
很牛	-18051
律己	-18052
微微	-18053
德洪	-18054
心存	-18055
必是	-18056
忍气	-18057
快去	-18058
快速	-18059
怀来	-18060
怕了	-18061
思路	-18062
性情	-18063
怨言	-18064
怪象	-18065
总比	-18066
总能	-18067
总裁	-18068
恨之	-18069
恨得	-18070
恰当	-18071
恶化	-18072
恶痛	-18073
悲壮	-18074
情分	-18075
想杀	-18076
愁眉	-18077
感触	-18078
慈善	-18079
憧憬	-18080
懈怠	-18081
我做	-18082
我再	-18083
我又	-18084
我本	-18085
我死	-18086
我素	-18087
我行	-18088
我诈	-18089
战马	-18090
房中	-18091
房梁	-18092
所归	-18093
才对	-18094
才把	-18095
才被	-18096
打乱	-18097
打出	-18098
打吧	-18099
打扮	-18100
打点	-18101
打谁	-18102
打退	-18103
打鼓	-18104
扩张	-18105
扯立	-18106
扶植	-18107
扶贫	-18108
找抽	-18109
找的	-18110
承恩	-18111
抄了	-18112
投胎	-18113
抗争	-18114
抗拒	-18115
抗日	-18116
抢到	-18117
抢地	-18118
报功	-18119
报恩	-18120
抬举	-18121
抱头	-18122
担当	-18123
拉他	-18124
拙劣	-18125
拚命	-18126
招惹	-18127
招风	-18128
拼活	-18129
指手	-18130
指点	-18131
指认	-18132
挑中	-18133
挑事	-18134
挖掘	-18135
挟持	-18136
挥之	-18137
[...]
